<|pad|>	0
<|unk|>	0
<|startoftext|>	0
<|endoftext|>	0
<|user|>	0
<|assistant|>	0
<|system|>	0
<0x00>	0
<0x01>	0
<0x02>	0
<0x03>	0
<0x04>	0
<0x05>	0
<0x06>	0
<0x07>	0
<0x08>	0
<0x09>	0
<0x0A>	0
<0x0B>	0
<0x0C>	0
<0x0D>	0
<0x0E>	0
<0x0F>	0
<0x10>	0
<0x11>	0
<0x12>	0
<0x13>	0
<0x14>	0
<0x15>	0
<0x16>	0
<0x17>	0
<0x18>	0
<0x19>	0
<0x1A>	0
<0x1B>	0
<0x1C>	0
<0x1D>	0
<0x1E>	0
<0x1F>	0
<0x20>	0
<0x21>	0
<0x22>	0
<0x23>	0
<0x24>	0
<0x25>	0
<0x26>	0
<0x27>	0
<0x28>	0
<0x29>	0
<0x2A>	0
<0x2B>	0
<0x2C>	0
<0x2D>	0
<0x2E>	0
<0x2F>	0
<0x30>	0
<0x31>	0
<0x32>	0
<0x33>	0
<0x34>	0
<0x35>	0
<0x36>	0
<0x37>	0
<0x38>	0
<0x39>	0
<0x3A>	0
<0x3B>	0
<0x3C>	0
<0x3D>	0
<0x3E>	0
<0x3F>	0
<0x40>	0
<0x41>	0
<0x42>	0
<0x43>	0
<0x44>	0
<0x45>	0
<0x46>	0
<0x47>	0
<0x48>	0
<0x49>	0
<0x4A>	0
<0x4B>	0
<0x4C>	0
<0x4D>	0
<0x4E>	0
<0x4F>	0
<0x50>	0
<0x51>	0
<0x52>	0
<0x53>	0
<0x54>	0
<0x55>	0
<0x56>	0
<0x57>	0
<0x58>	0
<0x59>	0
<0x5A>	0
<0x5B>	0
<0x5C>	0
<0x5D>	0
<0x5E>	0
<0x5F>	0
<0x60>	0
<0x61>	0
<0x62>	0
<0x63>	0
<0x64>	0
<0x65>	0
<0x66>	0
<0x67>	0
<0x68>	0
<0x69>	0
<0x6A>	0
<0x6B>	0
<0x6C>	0
<0x6D>	0
<0x6E>	0
<0x6F>	0
<0x70>	0
<0x71>	0
<0x72>	0
<0x73>	0
<0x74>	0
<0x75>	0
<0x76>	0
<0x77>	0
<0x78>	0
<0x79>	0
<0x7A>	0
<0x7B>	0
<0x7C>	0
<0x7D>	0
<0x7E>	0
<0x7F>	0
<0x80>	0
<0x81>	0
<0x82>	0
<0x83>	0
<0x84>	0
<0x85>	0
<0x86>	0
<0x87>	0
<0x88>	0
<0x89>	0
<0x8A>	0
<0x8B>	0
<0x8C>	0
<0x8D>	0
<0x8E>	0
<0x8F>	0
<0x90>	0
<0x91>	0
<0x92>	0
<0x93>	0
<0x94>	0
<0x95>	0
<0x96>	0
<0x97>	0
<0x98>	0
<0x99>	0
<0x9A>	0
<0x9B>	0
<0x9C>	0
<0x9D>	0
<0x9E>	0
<0x9F>	0
<0xA0>	0
<0xA1>	0
<0xA2>	0
<0xA3>	0
<0xA4>	0
<0xA5>	0
<0xA6>	0
<0xA7>	0
<0xA8>	0
<0xA9>	0
<0xAA>	0
<0xAB>	0
<0xAC>	0
<0xAD>	0
<0xAE>	0
<0xAF>	0
<0xB0>	0
<0xB1>	0
<0xB2>	0
<0xB3>	0
<0xB4>	0
<0xB5>	0
<0xB6>	0
<0xB7>	0
<0xB8>	0
<0xB9>	0
<0xBA>	0
<0xBB>	0
<0xBC>	0
<0xBD>	0
<0xBE>	0
<0xBF>	0
<0xC0>	0
<0xC1>	0
<0xC2>	0
<0xC3>	0
<0xC4>	0
<0xC5>	0
<0xC6>	0
<0xC7>	0
<0xC8>	0
<0xC9>	0
<0xCA>	0
<0xCB>	0
<0xCC>	0
<0xCD>	0
<0xCE>	0
<0xCF>	0
<0xD0>	0
<0xD1>	0
<0xD2>	0
<0xD3>	0
<0xD4>	0
<0xD5>	0
<0xD6>	0
<0xD7>	0
<0xD8>	0
<0xD9>	0
<0xDA>	0
<0xDB>	0
<0xDC>	0
<0xDD>	0
<0xDE>	0
<0xDF>	0
<0xE0>	0
<0xE1>	0
<0xE2>	0
<0xE3>	0
<0xE4>	0
<0xE5>	0
<0xE6>	0
<0xE7>	0
<0xE8>	0
<0xE9>	0
<0xEA>	0
<0xEB>	0
<0xEC>	0
<0xED>	0
<0xEE>	0
<0xEF>	0
<0xF0>	0
<0xF1>	0
<0xF2>	0
<0xF3>	0
<0xF4>	0
<0xF5>	0
<0xF6>	0
<0xF7>	0
<0xF8>	0
<0xF9>	0
<0xFA>	0
<0xFB>	0
<0xFC>	0
<0xFD>	0
<0xFE>	0
<0xFF>	0
he	-0
▁t	-1
▁a	-2
▁s	-3
▁w	-4
nd	-5
▁the	-6
ed	-7
▁and	-8
▁to	-9
▁b	-10
in	-11
▁h	-12
▁wa	-13
re	-14
ou	-15
▁f	-16
it	-17
▁T	-18
▁l	-19
▁c	-20
▁d	-21
er	-22
▁he	-23
▁m	-24
▁p	-25
▁was	-26
om	-27
▁o	-28
ay	-29
▁The	-30
ar	-31
is	-32
ing	-33
il	-34
▁g	-35
id	-36
▁S	-37
at	-38
en	-39
▁n	-40
▁sa	-41
▁ha	-42
an	-43
im	-44
or	-45
on	-46
▁it	-47
▁th	-48
▁H	-49
ll	-50
▁"	-51
le	-52
▁her	-53
ot	-54
et	-55
▁She	-56
ir	-57
▁He	-58
▁They	-59
es	-60
▁in	-61
ver	-62
ut	-63
ow	-64
ck	-65
▁L	-66
▁e	-67
▁u	-68
ld	-69
▁y	-70
oo	-71
▁said	-72
ig	-73
ily	-74
▁r	-75
▁be	-76
▁I	-77
am	-78
▁st	-79
ce	-80
ke	-81
▁she	-82
ve	-83
pp	-84
ith	-85
▁with	-86
▁O	-87
▁On	-88
▁on	-89
▁Lily	-90
▁you	-91
▁of	-92
ked	-93
ri	-94
▁so	-95
nt	-96
▁his	-97
▁pl	-98
ad	-99
▁B	-100
very	-101
▁day	-102
▁that	-103
▁up	-104
▁play	-105
▁had	-106
st	-107
▁they	-108
▁we	-109
▁mom	-110
▁M	-111
▁for	-112
el	-113
un	-114
ould	-115
my	-116
▁li	-117
ch	-118
ent	-119
▁happ	-120
▁want	-121
itt	-122
▁sh	-123
out	-124
her	-125
▁do	-126
ly	-127
▁not	-128
ome	-129
se	-130
▁very	-131
ound	-132
end	-133
all	-134
▁wh	-135
ime	-136
ittle	-137
▁k	-138
▁time	-139
▁little	-140
al	-141
▁there	-142
▁A	-143
▁ne	-144
ht	-145
▁re	-146
▁It	-147
▁happy	-148
▁sm	-149
▁big	-150
▁is	-151
▁but	-152
ack	-153
▁an	-154
▁saw	-155
riend	-156
."	-157
▁friend	-158
ry	-159
▁as	-160
ra	-161
ide	-162
▁One	-163
ake	-164
!"	-165
ug	-166
▁Tim	-167
▁loo	-168
ved	-169
ter	-170
▁were	-171
ore	-172
▁Once	-173
▁lo	-174
▁J	-175
ec	-176
▁him	-177
▁too	-178
▁go	-179
▁bo	-180
▁se	-181
irl	-182
▁are	-183
▁j	-184
ard	-185
▁wanted	-186
ill	-187
▁girl	-188
▁upon	-189
▁them	-190
▁out	-191
▁Tom	-192
▁at	-193
ur	-194
ind	-195
▁their	-196
fu	-197
▁sp	-198
▁Ben	-199
way	-200
▁smil	-201
▁did	-202
▁could	-203
hen	-204
▁have	-205
ain	-206
art	-207
▁ex	-208
hed	-209
rom	-210
▁went	-211
▁ar	-212
ic	-213
▁can	-214
▁W	-215
lp	-216
ful	-217
ood	-218
?"	-219
hing	-220
▁friends	-221
▁nam	-222
▁But	-223
ight	-224
▁all	-225
▁help	-226
▁kn	-227
um	-228
one	-229
ark	-230
▁back	-231
▁say	-232
You	-233
▁fun	-234
▁cl	-235
are	-236
▁no	-237
▁le	-238
▁Timmy	-239
op	-240
▁smiled	-241
▁sc	-242
▁named	-243
▁al	-244
oug	-245
▁loved	-246
side	-247
elt	-248
▁man	-249
▁asked	-250
ick	-251
▁toy	-252
▁like	-253
▁fe	-254
▁felt	-255
▁looked	-256
▁some	-257
▁around	-258
▁see	-259
▁me	-260
ame	-261
omet	-262
▁ro	-263
▁br	-264
ure	-265
▁bir	-266
get	-267
ice	-268
▁boy	-269
▁would	-270
▁start	-271
ong	-272
ss	-273
▁bird	-274
▁somet	-275
▁fa	-276
dd	-277
ings	-278
▁ag	-279
▁wor	-280
▁what	-281
▁Mom	-282
ade	-283
▁make	-284
king	-285
,"	-286
ie	-287
own	-288
▁tre	-289
▁ran	-290
gether	-291
▁You	-292
▁away	-293
ag	-294
ared	-295
▁says	-296
▁started	-297
oud	-298
if	-299
▁made	-300
▁car	-301
▁something	-302
▁together	-303
ited	-304
ther	-305
▁park	-306
▁co	-307
▁sad	-308
▁other	-309
▁new	-310
▁E	-311
▁exc	-312
▁put	-313
▁from	-314
▁pr	-315
ell	-316
▁la	-317
▁hug	-318
ble	-319
▁mu	-320
ook	-321
ach	-322
▁again	-323
▁home	-324
▁when	-325
▁F	-326
▁good	-327
hat	-328
ep	-329
▁who	-330
est	-331
ried	-332
▁found	-333
▁fl	-334
▁then	-335
▁ch	-336
▁dec	-337
pped	-338
▁wal	-339
as	-340
▁D	-341
▁get	-342
qu	-343
▁playing	-344
ought	-345
pl	-346
ally	-347
▁sw	-348
▁Su	-349
ous	-350
nn	-351
▁things	-352
▁excited	-353
▁liked	-354
▁got	-355
uck	-356
ro	-357
▁Sam	-358
ided	-359
▁decided	-360
▁bl	-361
ave	-362
▁came	-363
▁every	-364
ara	-365
▁your	-366
ax	-367
▁v	-368
▁scared	-369
▁Ann	-370
ust	-371
▁one	-372
▁dog	-373
▁down	-374
ouse	-375
ny	-376
▁find	-377
▁care	-378
▁bec	-379
ist	-380
▁than	-381
▁feel	-382
ap	-383
▁dad	-384
▁Sara	-385
▁ab	-386
▁my	-387
▁look	-388
▁ke	-389
▁Anna	-390
our	-391
▁will	-392
arn	-393
▁gr	-394
nder	-395
▁Max	-396
▁gra	-397
ways	-398
ess	-399
▁didn	-400
▁po	-401
fe	-402
▁always	-403
▁took	-404
▁about	-405
ant	-406
bb	-407
▁lot	-408
▁mommy	-409
▁toys	-410
▁kne	-411
ers	-412
ise	-413
▁So	-414
▁bu	-415
ite	-416
▁outside	-417
▁tree	-418
▁thought	-419
▁ball	-420
▁more	-421
eci	-422
ened	-423
ched	-424
▁ta	-425
▁old	-426
▁ho	-427
▁learn	-428
ret	-429
▁int	-430
ged	-431
▁When	-432
▁pu	-433
▁know	-434
▁Jo	-435
▁laug	-436
▁take	-437
ecial	-438
▁special	-439
▁sor	-440
▁cat	-441
dden	-442
▁knew	-443
ive	-444
▁Her	-445
ia	-446
▁pe	-447
▁any	-448
ddenly	-449
▁tr	-450
fter	-451
▁how	-452
au	-453
ma	-454
▁show	-455
ink	-456
▁sorry	-457
▁tw	-458
▁much	-459
▁Jack	-460
ish	-461
▁run	-462
and	-463
▁Every	-464
▁hand	-465
▁sl	-466
ven	-467
▁house	-468
▁or	-469
▁op	-470
▁sk	-471
▁mo	-472
▁clo	-473
▁sun	-474
▁into	-475
▁tried	-476
▁inside	-477
ate	-478
▁told	-479
▁water	-480
▁this	-481
▁en	-482
ank	-483
▁if	-484
▁proud	-485
ump	-486
▁qu	-487
▁over	-488
▁couldn	-489
dy	-490
▁gave	-491
▁heard	-492
▁never	-493
by	-494
▁each	-495
ace	-496
▁room	-497
ty	-498
▁expl	-499
here	-500
▁eat	-501
▁Suddenly	-502
▁We	-503
other	-504
ause	-505
▁pick	-506
ion	-507
▁pret	-508
▁played	-509
ge	-510
etter	-511
▁Then	-512
▁just	-513
ak	-514
▁Mia	-515
▁hugged	-516
▁gre	-517
▁off	-518
▁com	-519
▁wat	-520
oth	-521
▁box	-522
▁nice	-523
▁From	-524
ue	-525
▁str	-526
▁because	-527
▁need	-528
▁His	-529
ile	-530
▁many	-531
▁And	-532
▁fo	-533
uc	-534
▁jo	-535
▁bear	-536
▁small	-537
iz	-538
ving	-539
▁long	-540
ine	-541
gry	-542
sed	-543
imal	-544
ort	-545
▁animal	-546
▁sn	-547
ough	-548
▁try	-549
▁unt	-550
ild	-551
sel	-552
urt	-553
▁C	-554
▁until	-555
▁kind	-556
▁learned	-557
▁im	-558
▁â	-559
▁love	-560
▁better	-561
ft	-562
▁flow	-563
▁call	-564
▁don	-565
▁end	-566
▁ad	-567
▁best	-568
vent	-569
Yes	-570
ars	-571
urp	-572
ady	-573
em	-574
ream	-575
aut	-576
urn	-577
▁cle	-578
ves	-579
arden	-580
▁garden	-581
▁fast	-582
▁cu	-583
▁careful	-584
ber	-585
lly	-586
▁beaut	-587
▁even	-588
pt	-589
▁bra	-590
ies	-591
▁thanked	-592
▁fi	-593
▁che	-594
▁laughed	-595
▁sky	-596
▁by	-597
▁jump	-598
▁gl	-599
ase	-600
▁te	-601
▁loud	-602
self	-603
Th	-604
iny	-605
▁way	-606
wn	-607
▁beauti	-608
▁come	-609
lew	-610
▁list	-611
▁wo	-612
▁beautiful	-613
▁hard	-614
▁lots	-615
▁ra	-616
▁still	-617
▁fam	-618
▁animals	-619
▁hurt	-620
▁under	-621
▁P	-622
▁Joh	-623
ect	-624
▁stay	-625
ning	-626
▁let	-627
ct	-628
▁both	-629
sh	-630
hes	-631
be	-632
▁safe	-633
ool	-634
ree	-635
▁col	-636
▁two	-637
▁bad	-638
It	-639
▁book	-640
▁imp	-641
ople	-642
▁rem	-643
ane	-644
▁As	-645
▁lived	-646
kay	-647
ock	-648
ucy	-649
▁walked	-650
ast	-651
▁su	-652
urpr	-653
▁Lucy	-654
▁brave	-655
▁should	-656
▁its	-657
ob	-658
ished	-659
▁angry	-660
▁surpr	-661
▁family	-662
ress	-663
igh	-664
▁people	-665
▁flew	-666
▁called	-667
No	-668
▁red	-669
▁After	-670
▁stor	-671
ip	-672
▁soon	-673
▁fin	-674
Let	-675
led	-676
▁kept	-677
▁fore	-678
fore	-679
▁dan	-680
▁share	-681
▁fly	-682
xt	-683
▁John	-684
ised	-685
▁Mommy	-686
dded	-687
▁pic	-688
▁door	-689
▁going	-690
▁G	-691
▁pretty	-692
▁keep	-693
▁Dad	-694
▁now	-695
▁rock	-696
▁clean	-697
▁dra	-698
ary	-699
▁advent	-700
ummy	-701
▁noise	-702
▁opened	-703
▁shiny	-704
age	-705
▁explore	-706
▁wind	-707
▁doll	-708
▁cry	-709
▁con	-710
▁ide	-711
▁before	-712
ied	-713
illy	-714
▁real	-715
▁sto	-716
so	-717
What	-718
▁ground	-719
▁also	-720
les	-721
▁turn	-722
▁ey	-723
▁far	-724
▁idea	-725
▁fr	-726
▁Sp	-727
▁nodded	-728
▁color	-729
▁war	-730
▁feeling	-731
▁un	-732
▁picked	-733
imb	-734
oy	-735
th	-736
▁next	-737
▁walking	-738
thing	-739
▁Bob	-740
ture	-741
▁climb	-742
▁has	-743
▁ma	-744
▁thr	-745
▁while	-746
eet	-747
▁bed	-748
▁adventure	-749
▁smile	-750
kes	-751
That	-752
aybe	-753
iced	-754
ger	-755
Thank	-756
ious	-757
▁being	-758
▁dif	-759
▁wr	-760
▁clos	-761
▁food	-762
joy	-763
ted	-764
▁give	-765
▁picture	-766
▁N	-767
▁think	-768
▁looking	-769
▁del	-770
ff	-771
ac	-772
▁truck	-773
▁wait	-774
▁eyes	-775
ught	-776
▁tow	-777
ting	-778
▁repl	-779
▁bro	-780
▁stopped	-781
▁listen	-782
▁after	-783
▁R	-784
▁bre	-785
▁own	-786
▁vo	-787
▁walk	-788
ember	-789
▁wonder	-790
▁great	-791
▁Spot	-792
▁hands	-793
▁shout	-794
▁head	-795
▁enjoy	-796
▁import	-797
▁flowers	-798
▁ever	-799
▁Sue	-800
▁noticed	-801
▁blue	-802
▁forest	-803
bbit	-804
ized	-805
▁app	-806
irst	-807
▁near	-808
▁quick	-809
▁dis	-810
▁de	-811
able	-812
▁important	-813
▁remember	-814
▁fish	-815
llow	-816
▁sound	-817
oon	-818
▁slide	-819
▁us	-820
maz	-821
▁replied	-822
▁amaz	-823
▁ac	-824
lease	-825
▁work	-826
▁watch	-827
▁rain	-828
▁showed	-829
▁rabbit	-830
▁okay	-831
gan	-832
▁tal	-833
bye	-834
fere	-835
bbed	-836
▁ask	-837
▁ru	-838
▁differe	-839
▁mean	-840
▁Sarah	-841
▁right	-842
▁tou	-843
▁ye	-844
day	-845
▁watched	-846
▁bright	-847
▁follow	-848
▁everyone	-849
▁strong	-850
We	-851
▁squ	-852
▁stick	-853
▁use	-854
▁been	-855
▁mor	-856
▁voice	-857
▁tra	-858
ered	-859
▁quickly	-860
ath	-861
▁our	-862
▁where	-863
▁yell	-864
▁Jane	-865
▁different	-866
▁child	-867
▁curi	-868
▁boat	-869
ng	-870
▁sure	-871
▁became	-872
▁goodbye	-873
▁face	-874
▁place	-875
ange	-876
▁hop	-877
▁Th	-878
▁high	-879
▁am	-880
Look	-881
aught	-882
▁closer	-883
▁store	-884
▁warm	-885
▁does	-886
▁cr	-887
▁dress	-888
unny	-889
▁curious	-890
▁mag	-891
ila	-892
▁Joe	-893
▁cook	-894
▁bel	-895
▁forg	-896
▁tell	-897
▁fav	-898
ndma	-899
ass	-900
ount	-901
co	-902
▁three	-903
leep	-904
▁night	-905
▁open	-906
▁cake	-907
more	-908
▁here	-909
▁anymore	-910
▁block	-911
▁Lila	-912
▁first	-913
itc	-914
ull	-915
▁pull	-916
iss	-917
ached	-918
ired	-919
▁butter	-920
▁z	-921
imes	-922
orn	-923
▁sweet	-924
▁pain	-925
▁kid	-926
▁grabbed	-927
Can	-928
▁In	-929
isy	-930
▁only	-931
▁mon	-932
▁lea	-933
▁fell	-934
▁ba	-935
▁cont	-936
▁Everyone	-937
▁birds	-938
▁jumped	-939
▁glad	-940
▁bit	-941
▁sand	-942
itchen	-943
▁kitchen	-944
▁That	-945
▁helped	-946
▁sees	-947
▁fire	-948
▁per	-949
▁flo	-950
▁stop	-951
▁happened	-952
▁sing	-953
▁grass	-954
▁bunny	-955
▁shouted	-956
▁story	-957
▁Let	-958
▁tri	-959
nts	-960
▁dr	-961
air	-962
▁Do	-963
▁reached	-964
ppy	-965
▁beh	-966
▁realized	-967
▁yummy	-968
▁brother	-969
Mom	-970
▁lady	-971
▁Tommy	-972
▁mum	-973
ey	-974
▁having	-975
▁prin	-976
ins	-977
▁favor	-978
▁mess	-979
▁favorite	-980
▁draw	-981
▁cre	-982
▁rest	-983
▁through	-984
▁game	-985
▁hat	-986
▁ate	-987
▁less	-988
▁underst	-989
akes	-990
▁soft	-991
▁pare	-992
zy	-993
▁thing	-994
▁really	-995
ather	-996
▁ready	-997
▁began	-998
where	-999
▁pretend	-1000
▁Can	-1001
▁world	-1002
▁looks	-1003
ken	-1004
▁himself	-1005
▁magic	-1006
fully	-1007
▁pap	-1008
▁done	-1009
▁butterf	-1010
▁making	-1011
▁cut	-1012
▁coming	-1013
▁duck	-1014
ater	-1015
▁pond	-1016
▁kids	-1017
▁waved	-1018
▁why	-1019
▁prom	-1020
▁fro	-1021
▁tired	-1022
▁fix	-1023
ster	-1024
▁mouse	-1025
▁worry	-1026
olly	-1027
▁part	-1028
▁cars	-1029
▁ste	-1030
▁delic	-1031
▁name	-1032
▁flower	-1033
ign	-1034
▁Fin	-1035
▁fill	-1036
Wow	-1037
aisy	-1038
▁touch	-1039
eddy	-1040
▁funny	-1041
▁catch	-1042
bo	-1043
▁used	-1044
▁Sally	-1045
▁seen	-1046
▁hair	-1047
▁tast	-1048
ient	-1049
▁top	-1050
▁parents	-1051
rel	-1052
▁another	-1053
▁hold	-1054
▁hopped	-1055
▁cried	-1056
iver	-1057
oney	-1058
mer	-1059
▁doing	-1060
▁cool	-1061
▁blocks	-1062
".	-1063
▁surprise	-1064
▁light	-1065
hy	-1066
▁green	-1067
▁thank	-1068
▁lesson	-1069
ation	-1070
▁read	-1071
▁floor	-1072
▁din	-1073
▁gi	-1074
▁wood	-1075
▁dri	-1076
Don	-1077
ards	-1078
▁full	-1079
▁trees	-1080
▁running	-1081
▁window	-1082
▁worked	-1083
▁years	-1084
▁cra	-1085
▁-	-1086
▁dro	-1087
▁dark	-1088
▁behind	-1089
▁likes	-1090
▁smell	-1091
▁spot	-1092
▁wished	-1093
▁paper	-1094
ued	-1095
▁yellow	-1096
andy	-1097
▁bow	-1098
ren	-1099
▁swim	-1100
▁happily	-1101
▁bag	-1102
▁sat	-1103
ul	-1104
▁sho	-1105
▁sleep	-1106
aring	-1107
▁Daisy	-1108
▁surprised	-1109
ely	-1110
us	-1111
▁Em	-1112
▁frog	-1113
▁butterfly	-1114
ike	-1115
▁swing	-1116
▁set	-1117
▁carefully	-1118
▁slow	-1119
▁remembered	-1120
▁Jim	-1121
▁lost	-1122
▁Benny	-1123
▁cold	-1124
▁held	-1125
uff	-1126
ello	-1127
Hello	-1128
▁hole	-1129
▁ice	-1130
▁laugh	-1131
rew	-1132
▁At	-1133
▁needed	-1134
▁buy	-1135
▁perf	-1136
▁left	-1137
ons	-1138
▁move	-1139
reed	-1140
cess	-1141
▁anything	-1142
▁dream	-1143
▁tall	-1144
▁enjoyed	-1145
▁wrong	-1146
▁Billy	-1147
▁arri	-1148
▁hear	-1149
▁Now	-1150
▁fair	-1151
▁air	-1152
▁followed	-1153
▁There	-1154
▁Finally	-1155
▁books	-1156
ross	-1157
▁el	-1158
▁To	-1159
▁children	-1160
▁bus	-1161
▁hun	-1162
▁delicious	-1163
▁table	-1164
▁Gra	-1165
▁finished	-1166
▁contin	-1167
▁friendly	-1168
▁dir	-1169
▁hot	-1170
▁snow	-1171
▁Molly	-1172
▁herself	-1173
ds	-1174
lf	-1175
▁hill	-1176
ens	-1177
▁understand	-1178
▁please	-1179
▁close	-1180
ined	-1181
▁Amy	-1182
▁hid	-1183
sp	-1184
▁arrived	-1185
▁cast	-1186
▁else	-1187
▁arm	-1188
▁baby	-1189
▁wonderful	-1190
▁might	-1191
▁gent	-1192
▁tight	-1193
▁forgot	-1194
ield	-1195
▁bug	-1196
▁colors	-1197
▁rel	-1198
▁build	-1199
▁broken	-1200
▁able	-1201
▁gone	-1202
av	-1203
ner	-1204
▁yes	-1205
▁Jen	-1206
atter	-1207
▁song	-1208
ich	-1209
▁wall	-1210
▁squir	-1211
▁filled	-1212
▁agreed	-1213
▁someone	-1214
▁gu	-1215
▁continued	-1216
room	-1217
▁creat	-1218
asure	-1219
▁count	-1220
▁wants	-1221
▁squirrel	-1222
▁pink	-1223
▁leaves	-1224
ask	-1225
▁This	-1226
▁enough	-1227
▁lion	-1228
ama	-1229
ee	-1230
▁morning	-1231
▁vis	-1232
▁moment	-1233
▁finally	-1234
▁getting	-1235
▁stayed	-1236
▁cookies	-1237
▁break	-1238
shed	-1239
app	-1240
▁poin	-1241
ance	-1242
▁beach	-1243
▁Maybe	-1244
▁few	-1245
▁scary	-1246
▁fight	-1247
▁sometimes	-1248
row	-1249
ash	-1250
ries	-1251
ced	-1252
red	-1253
▁What	-1254
▁turned	-1255
▁hungry	-1256
▁fall	-1257
▁dinner	-1258
gon	-1259
▁mother	-1260
▁grandma	-1261
▁ju	-1262
▁wet	-1263
▁amazing	-1264
apped	-1265
▁trying	-1266
▁cream	-1267
▁daddy	-1268
▁perfect	-1269
▁pi	-1270
▁makes	-1271
▁castle	-1272
▁others	-1273
▁climbed	-1274
key	-1275
oup	-1276
▁pictures	-1277
icy	-1278
▁comp	-1279
amp	-1280
▁talk	-1281
▁met	-1282
▁mus	-1283
ere	-1284
▁white	-1285
oom	-1286
▁listened	-1287
▁smiles	-1288
man	-1289
▁fur	-1290
▁balloon	-1291
▁clot	-1292
oring	-1293
▁alone	-1294
▁Jill	-1295
▁clothes	-1296
▁pol	-1297
lc	-1298
▁tail	-1299
▁joy	-1300
ated	-1301
rot	-1302
▁puppy	-1303
▁spl	-1304
ence	-1305
▁mar	-1306
▁wasn	-1307
▁brought	-1308
▁deep	-1309
▁everything	-1310
▁pet	-1311
▁sear	-1312
Oh	-1313
▁strange	-1314
ister	-1315
ctor	-1316
▁spark	-1317
der	-1318
▁sit	-1319
▁woods	-1320
▁grow	-1321
▁pulled	-1322
ling	-1323
▁sail	-1324
ott	-1325
▁won	-1326
▁plan	-1327
▁ride	-1328
eter	-1329
▁asks	-1330
▁fox	-1331
▁pie	-1332
▁danger	-1333
▁treat	-1334
uffy	-1335
▁roll	-1336
▁visit	-1337
▁leave	-1338
os	-1339
med	-1340
▁pat	-1341
ucky	-1342
This	-1343
▁music	-1344
▁amazed	-1345
▁waited	-1346
▁Soon	-1347
▁teddy	-1348
▁hide	-1349
me	-1350
But	-1351
ang	-1352
ever	-1353
▁towards	-1354
ower	-1355
▁field	-1356
▁land	-1357
▁pre	-1358
▁flying	-1359
zz	-1360
▁All	-1361
▁pen	-1362
▁silly	-1363
▁shared	-1364
▁runs	-1365
ained	-1366
▁owner	-1367
▁cloud	-1368
ape	-1369
▁living	-1370
ugg	-1371
▁Daddy	-1372
▁qui	-1373
ames	-1374
▁job	-1375
▁promised	-1376
▁belie	-1377
igg	-1378
▁moral	-1379
▁side	-1380
gs	-1381
orm	-1382
ol	-1383
▁lake	-1384
▁thinks	-1385
▁Mama	-1386
cket	-1387
Maybe	-1388
ope	-1389
▁paint	-1390
▁sec	-1391
thy	-1392
▁sister	-1393
▁Mary	-1394
ually	-1395
▁party	-1396
▁quiet	-1397
ises	-1398
Okay	-1399
▁must	-1400
cle	-1401
▁race	-1402
avy	-1403
▁money	-1404
▁wear	-1405
sw	-1406
▁worried	-1407
ased	-1408
▁answ	-1409
unch	-1410
▁slowly	-1411
▁pot	-1412
eces	-1413
▁colorful	-1414
▁faster	-1415
▁grate	-1416
▁ow	-1417
▁dance	-1418
▁pieces	-1419
▁bran	-1420
▁bott	-1421
▁welc	-1422
▁broke	-1423
▁cup	-1424
ix	-1425
▁grateful	-1426
▁gif	-1427
▁such	-1428
▁bigger	-1429
ze	-1430
▁train	-1431
ph	-1432
fort	-1433
▁snack	-1434
▁cho	-1435
▁Fl	-1436
▁reach	-1437
▁Mr	-1438
▁blank	-1439
▁monster	-1440
▁pro	-1441
▁plant	-1442
▁join	-1443
▁river	-1444
▁black	-1445
less	-1446
▁win	-1447
▁candy	-1448
ire	-1449
▁blanket	-1450
▁scream	-1451
uit	-1452
▁treasure	-1453
ear	-1454
▁magical	-1455
▁ve	-1456
▁princess	-1457
▁ele	-1458
▁smart	-1459
▁stu	-1460
▁bike	-1461
▁dangerous	-1462
▁Just	-1463
▁sign	-1464
▁dragon	-1465
▁across	-1466
▁monkey	-1467
▁bar	-1468
▁most	-1469
▁everywhere	-1470
▁helping	-1471
▁nap	-1472
▁farmer	-1473
outh	-1474
▁em	-1475
▁mouth	-1476
Why	-1477
set	-1478
▁disapp	-1479
▁Jimmy	-1480
▁pa	-1481
▁words	-1482
▁je	-1483
ipped	-1484
Sure	-1485
▁stre	-1486
ored	-1487
▁tower	-1488
ming	-1489
eared	-1490
▁threw	-1491
Hi	-1492
▁stepped	-1493
▁heavy	-1494
▁dolls	-1495
▁pass	-1496
▁bite	-1497
de	-1498
▁bowl	-1499
▁dirty	-1500
▁twins	-1501
▁same	-1502
▁crying	-1503
▁bee	-1504
▁spr	-1505
▁doctor	-1506
ident	-1507
▁Grandma	-1508
▁acc	-1509
▁believe	-1510
▁wouldn	-1511
▁bath	-1512
▁heal	-1513
Mommy	-1514
chool	-1515
▁hig	-1516
bble	-1517
▁closed	-1518
▁carrot	-1519
▁Mum	-1520
▁heart	-1521
▁stuck	-1522
cked	-1523
The	-1524
▁cour	-1525
▁fruit	-1526
▁buck	-1527
▁min	-1528
▁att	-1529
▁teac	-1530
▁school	-1531
▁brown	-1532
▁hoped	-1533
asket	-1534
iting	-1535
▁suddenly	-1536
▁basket	-1537
▁feels	-1538
▁mix	-1539
▁Emma	-1540
▁chair	-1541
▁eating	-1542
▁town	-1543
▁course	-1544
▁cray	-1545
▁clapped	-1546
▁coll	-1547
▁gentle	-1548
▁fairy	-1549
pping	-1550
▁butt	-1551
▁pack	-1552
ventually	-1553
▁stand	-1554
ier	-1555
▁drove	-1556
ors	-1557
▁pushed	-1558
br	-1559
issed	-1560
▁welcome	-1561
ts	-1562
▁swings	-1563
▁without	-1564
▁Inside	-1565
▁higher	-1566
▁today	-1567
▁neigh	-1568
▁pocket	-1569
orrow	-1570
▁hit	-1571
▁teacher	-1572
▁neighb	-1573
▁pers	-1574
ord	-1575
▁smo	-1576
▁games	-1577
ourn	-1578
▁piece	-1579
ract	-1580
▁cheered	-1581
▁wings	-1582
▁forget	-1583
▁ben	-1584
▁explained	-1585
▁journ	-1586
▁yard	-1587
▁longer	-1588
▁free	-1589
ible	-1590
▁corn	-1591
▁accident	-1592
ead	-1593
ho	-1594
▁dry	-1595
▁along	-1596
umb	-1597
ment	-1598
▁Their	-1599
cy	-1600
▁noises	-1601
itting	-1602
▁neck	-1603
▁sang	-1604
▁inst	-1605
▁late	-1606
▁happen	-1607
▁throw	-1608
▁hugs	-1609
▁young	-1610
▁turns	-1611
▁stories	-1612
vel	-1613
▁shoes	-1614
phant	-1615
▁lon	-1616
▁miss	-1617
▁adventures	-1618
▁singing	-1619
▁trou	-1620
▁well	-1621
▁sea	-1622
▁lunch	-1623
▁apple	-1624
▁upset	-1625
▁lonely	-1626
▁key	-1627
ches	-1628
▁belong	-1629
bby	-1630
oun	-1631
▁dist	-1632
▁secret	-1633
▁street	-1634
▁plac	-1635
▁elephant	-1636
▁tom	-1637
▁wish	-1638
▁fence	-1639
▁mine	-1640
ountain	-1641
▁mat	-1642
ek	-1643
▁shap	-1644
▁shook	-1645
▁exploring	-1646
▁moved	-1647
▁purp	-1648
▁year	-1649
aughty	-1650
▁nearby	-1651
▁naughty	-1652
▁star	-1653
▁soup	-1654
▁shop	-1655
▁wise	-1656
▁Sammy	-1657
▁stars	-1658
▁owl	-1659
▁bring	-1660
fused	-1661
▁jar	-1662
bow	-1663
ocked	-1664
▁Fluffy	-1665
▁inv	-1666
▁exp	-1667
▁Tw	-1668
▁whe	-1669
yard	-1670
▁caught	-1671
ward	-1672
Do	-1673
▁backyard	-1674
▁seemed	-1675
ail	-1676
▁es	-1677
▁relie	-1678
▁dropped	-1679
▁ph	-1680
▁rocks	-1681
aughter	-1682
llo	-1683
▁drink	-1684
▁bucket	-1685
▁des	-1686
adow	-1687
ces	-1688
▁purple	-1689
▁swam	-1690
▁farm	-1691
▁resp	-1692
▁Thank	-1693
▁taking	-1694
▁mail	-1695
▁orange	-1696
▁though	-1697
ions	-1698
sy	-1699
▁shapes	-1700
▁past	-1701
col	-1702
▁cow	-1703
▁woke	-1704
▁bench	-1705
▁sounds	-1706
▁af	-1707
ung	-1708
ity	-1709
▁wondered	-1710
▁busy	-1711
▁fit	-1712
▁tiny	-1713
▁ob	-1714
▁Later	-1715
▁nose	-1716
▁sitting	-1717
▁nest	-1718
▁rainbow	-1719
ese	-1720
▁daughter	-1721
▁takes	-1722
▁mark	-1723
▁mad	-1724
fish	-1725
▁cou	-1726
▁kite	-1727
to	-1728
read	-1729
▁holding	-1730
▁nothing	-1731
Lily	-1732
▁comes	-1733
▁juice	-1734
▁arms	-1735
thday	-1736
▁pig	-1737
og	-1738
▁coat	-1739
ining	-1740
▁cir	-1741
▁With	-1742
▁branch	-1743
raid	-1744
▁relieved	-1745
pper	-1746
▁afraid	-1747
▁Ell	-1748
cing	-1749
ose	-1750
idge	-1751
▁driver	-1752
▁mil	-1753
▁forever	-1754
▁Al	-1755
vered	-1756
▁spoon	-1757
▁cute	-1758
▁carry	-1759
▁gift	-1760
▁sick	-1761
▁boun	-1762
ale	-1763
▁lift	-1764
sting	-1765
▁peace	-1766
▁promise	-1767
Of	-1768
ours	-1769
▁huge	-1770
▁act	-1771
▁touched	-1772
▁Jenny	-1773
▁patient	-1774
unt	-1775
▁king	-1776
▁round	-1777
cer	-1778
sc	-1779
▁hello	-1780
▁Come	-1781
▁birthday	-1782
▁fing	-1783
▁letter	-1784
▁grab	-1785
▁intere	-1786
▁exciting	-1787
let	-1788
▁sunny	-1789
▁cheese	-1790
▁Tweet	-1791
eth	-1792
▁onto	-1793
▁bush	-1794
▁laughing	-1795
▁days	-1796
board	-1797
▁journey	-1798
▁gigg	-1799
▁band	-1800
▁creature	-1801
▁disco	-1802
▁Wh	-1803
ittens	-1804
▁bread	-1805
Hey	-1806
arp	-1807
▁ret	-1808
ped	-1809
▁imag	-1810
shine	-1811
▁life	-1812
▁kick	-1813
gged	-1814
▁hope	-1815
▁power	-1816
▁craw	-1817
▁shell	-1818
▁cozy	-1819
▁swimming	-1820
▁inc	-1821
▁bottle	-1822
▁mist	-1823
▁sharp	-1824
▁Emily	-1825
▁wra	-1826
▁suc	-1827
▁comfort	-1828
gg	-1829
ness	-1830
▁instead	-1831
▁whist	-1832
▁milk	-1833
▁watching	-1834
▁return	-1835
▁ear	-1836
▁spin	-1837
alm	-1838
▁accidentally	-1839
▁eas	-1840
▁sunshine	-1841
ten	-1842
▁cave	-1843
pa	-1844
▁Ch	-1845
▁spo	-1846
▁puts	-1847
▁lucky	-1848
▁talked	-1849
▁honey	-1850
▁pudd	-1851
▁pointed	-1852
▁gives	-1853
▁collect	-1854
▁gather	-1855
itch	-1856
▁road	-1857
▁ent	-1858
▁smiling	-1859
▁bought	-1860
▁anyone	-1861
▁hor	-1862
▁searched	-1863
▁later	-1864
▁ce	-1865
▁fan	-1866
▁sandw	-1867
ball	-1868
round	-1869
itten	-1870
▁apples	-1871
els	-1872
blem	-1873
irt	-1874
▁problem	-1875
▁meet	-1876
ize	-1877
▁mach	-1878
▁wom	-1879
▁loves	-1880
▁interesting	-1881
œI	-1882
Good	-1883
▁woman	-1884
▁plane	-1885
▁kiss	-1886
▁pres	-1887
▁healthy	-1888
eb	-1889
▁pile	-1890
▁tasty	-1891
▁ducks	-1892
▁vill	-1893
▁wide	-1894
ove	-1895
ont	-1896
amed	-1897
ub	-1898
aur	-1899
▁adm	-1900
▁eag	-1901
▁spid	-1902
▁clever	-1903
▁crayons	-1904
▁prot	-1905
▁matter	-1906
▁trouble	-1907
erly	-1908
ndpa	-1909
▁zoom	-1910
▁clouds	-1911
owed	-1912
▁storm	-1913
▁person	-1914
▁path	-1915
cks	-1916
▁pill	-1917
▁feather	-1918
▁rope	-1919
▁pop	-1920
▁shining	-1921
▁protect	-1922
▁smelled	-1923
▁front	-1924
▁hon	-1925
▁button	-1926
▁How	-1927
▁pract	-1928
▁spotted	-1929
▁screamed	-1930
▁zoo	-1931
▁minut	-1932
▁present	-1933
▁Jake	-1934
Come	-1935
▁ap	-1936
▁mud	-1937
▁val	-1938
▁respect	-1939
▁Somet	-1940
▁saf	-1941
▁danced	-1942
▁cheer	-1943
▁organ	-1944
▁par	-1945
▁quest	-1946
ond	-1947
▁appeared	-1948
▁which	-1949
▁puzz	-1950
▁seat	-1951
▁teach	-1952
▁myster	-1953
▁snowman	-1954
isa	-1955
▁snake	-1956
▁thin	-1957
▁St	-1958
ert	-1959
▁wild	-1960
▁asleep	-1961
▁lovely	-1962
▁sur	-1963
▁answer	-1964
epend	-1965
▁Together	-1966
▁wearing	-1967
▁Mittens	-1968
▁gently	-1969
▁neighbor	-1970
oose	-1971
▁bark	-1972
▁horse	-1973
▁giant	-1974
▁places	-1975
▁goes	-1976
▁Re	-1977
▁whole	-1978
▁search	-1979
▁splas	-1980
up	-1981
▁corner	-1982
▁impress	-1983
ular	-1984
▁dirt	-1985
▁med	-1986
▁shr	-1987
een	-1988
▁tries	-1989
▁Lisa	-1990
▁trip	-1991
▁confused	-1992
▁live	-1993
▁mind	-1994
▁di	-1995
ato	-1996
▁rolled	-1997
▁card	-1998
▁slid	-1999
▁tasted	-2000
nic	-2001
cean	-2002
▁Le	-2003
▁ash	-2004
▁ocean	-2005
▁supp	-2006
▁forgive	-2007
▁picnic	-2008
▁Go	-2009
▁ca	-2010
▁rude	-2011
▁machine	-2012
▁spent	-2013
▁drive	-2014
▁teeth	-2015
▁ser	-2016
ssed	-2017
itty	-2018
▁phone	-2019
▁oven	-2020
▁pan	-2021
▁pour	-2022
▁last	-2023
la	-2024
▁calm	-2025
▁pretended	-2026
▁delight	-2027
▁cookie	-2028
▁furry	-2029
▁spider	-2030
izz	-2031
▁feet	-2032
▁faces	-2033
unk	-2034
▁lay	-2035
▁worm	-2036
▁ring	-2037
▁rec	-2038
umber	-2039
▁Be	-2040
▁helpful	-2041
▁lad	-2042
▁Peter	-2043
▁eventually	-2044
▁wip	-2045
▁chick	-2046
▁wave	-2047
▁mountain	-2048
▁sal	-2049
▁ban	-2050
▁emb	-2051
▁talking	-2052
ones	-2053
▁rob	-2054
Tom	-2055
▁fold	-2056
▁shy	-2057
▁cart	-2058
▁tomorrow	-2059
▁sel	-2060
▁chocol	-2061
▁tid	-2062
▁spread	-2063
▁village	-2064
arge	-2065
ife	-2066
▁remind	-2067
▁ign	-2068
▁bubble	-2069
▁tun	-2070
▁coin	-2071
▁foot	-2072
▁couch	-2073
▁write	-2074
▁push	-2075
▁ladder	-2076
▁building	-2077
▁fighting	-2078
▁smooth	-2079
▁Sometimes	-2080
▁Little	-2081
▁treats	-2082
▁wore	-2083
▁chased	-2084
▁tool	-2085
ighed	-2086
▁blew	-2087
▁stret	-2088
lex	-2089
arra	-2090
▁bugs	-2091
per	-2092
▁embarra	-2093
▁hiding	-2094
▁pool	-2095
▁'	-2096
▁cross	-2097
My	-2098
▁waiting	-2099
oph	-2100
▁knee	-2101
▁robot	-2102
▁neckl	-2103
▁step	-2104
▁Teddy	-2105
▁puddle	-2106
mo	-2107
▁finish	-2108
▁shelf	-2109
▁bell	-2110
▁coo	-2111
not	-2112
als	-2113
▁songs	-2114
▁stir	-2115
ator	-2116
▁whenever	-2117
▁selfish	-2118
▁ant	-2119
▁maybe	-2120
▁Mummy	-2121
▁cannot	-2122
▁string	-2123
▁stra	-2124
▁Sus	-2125
▁chocolate	-2126
▁Everywhere	-2127
ult	-2128
▁sol	-2129
▁taste	-2130
▁spe	-2131
▁rep	-2132
▁hum	-2133
▁ple	-2134
▁large	-2135
▁paw	-2136
▁net	-2137
box	-2138
▁sack	-2139
▁leaf	-2140
▁scar	-2141
▁fixed	-2142
lebr	-2143
▁barked	-2144
▁tidy	-2145
umpy	-2146
▁banan	-2147
▁wash	-2148
▁spray	-2149
▁stone	-2150
▁Bu	-2151
▁celebr	-2152
old	-2153
▁gen	-2154
▁cloth	-2155
Please	-2156
▁crab	-2157
▁peaceful	-2158
▁colour	-2159
▁Johnn	-2160
ungle	-2161
▁Please	-2162
oin	-2163
▁hel	-2164
ush	-2165
ird	-2166
▁missed	-2167
▁deter	-2168
▁jungle	-2169
iger	-2170
arm	-2171
St	-2172
▁landed	-2173
▁determ	-2174
▁forward	-2175
▁Johnny	-2176
▁embarrassed	-2177
▁Some	-2178
▁necklace	-2179
▁honest	-2180
▁jumping	-2181
airs	-2182
elly	-2183
▁bat	-2184
▁decor	-2185
▁Alice	-2186
dge	-2187
▁trust	-2188
▁hears	-2189
▁moon	-2190
orry	-2191
▁sticks	-2192
▁shirt	-2193
▁creative	-2194
▁sharing	-2195
aking	-2196
▁tea	-2197
most	-2198
▁knocked	-2199
▁carrots	-2200
▁disappoin	-2201
▁success	-2202
▁Don	-2203
▁meadow	-2204
ying	-2205
▁Even	-2206
getable	-2207
▁whis	-2208
▁stood	-2209
▁gener	-2210
▁vegetable	-2211
▁While	-2212
▁bal	-2213
▁meant	-2214
▁legs	-2215
▁tightly	-2216
▁breath	-2217
▁plate	-2218
▁almost	-2219
▁ashamed	-2220
ned	-2221
▁emp	-2222
▁sour	-2223
▁gray	-2224
dle	-2225
▁grew	-2226
▁tells	-2227
▁empty	-2228
▁pillow	-2229
ground	-2230
▁Bo	-2231
ony	-2232
▁gas	-2233
▁splash	-2234
▁whistle	-2235
ian	-2236
▁understood	-2237
▁sheep	-2238
▁ber	-2239
▁carried	-2240
den	-2241
▁yelled	-2242
▁Why	-2243
▁lem	-2244
ustr	-2245
arl	-2246
▁nods	-2247
vous	-2248
▁save	-2249
▁police	-2250
▁disappointed	-2251
▁snacks	-2252
▁hours	-2253
▁nut	-2254
ital	-2255
▁jew	-2256
▁these	-2257
hin	-2258
ork	-2259
▁hosp	-2260
ets	-2261
▁sparkly	-2262
▁gold	-2263
Where	-2264
erp	-2265
▁hospital	-2266
▁kitten	-2267
▁ship	-2268
▁pay	-2269
ina	-2270
▁bored	-2271
urse	-2272
▁line	-2273
▁generous	-2274
▁frustr	-2275
▁test	-2276
▁hidden	-2277
▁Leo	-2278
▁taught	-2279
▁standing	-2280
▁rad	-2281
▁scarf	-2282
iff	-2283
▁chew	-2284
▁returned	-2285
▁minutes	-2286
▁pizz	-2287
▁knowing	-2288
▁group	-2289
▁hur	-2290
▁plants	-2291
▁easy	-2292
▁blow	-2293
▁bedroom	-2294
▁polite	-2295
▁Rex	-2296
▁mysterious	-2297
▁waves	-2298
▁glass	-2299
▁sighed	-2300
▁shore	-2301
▁pri	-2302
▁seed	-2303
▁wolf	-2304
▁Mark	-2305
▁seek	-2306
▁determined	-2307
kin	-2308
Stop	-2309
▁puzzle	-2310
▁powerful	-2311
▁thankful	-2312
fl	-2313
▁class	-2314
▁Br	-2315
▁ner	-2316
▁pir	-2317
▁sandwich	-2318
▁fig	-2319
▁sleepy	-2320
▁prince	-2321
▁passed	-2322
▁drew	-2323
▁Bl	-2324
▁Susie	-2325
▁finger	-2326
▁jelly	-2327
▁pizza	-2328
▁nervous	-2329
▁frustrated	-2330
▁spicy	-2331
▁gun	-2332
▁spoil	-2333
▁match	-2334
▁fancy	-2335
▁messy	-2336
osaur	-2337
work	-2338
▁gate	-2339
▁bridge	-2340
▁lock	-2341
▁kissed	-2342
▁tick	-2343
aul	-2344
▁closet	-2345
▁fear	-2346
▁reg	-2347
af	-2348
▁feed	-2349
▁mot	-2350
▁sold	-2351
▁wis	-2352
▁gathered	-2353
▁av	-2354
▁excite	-2355
▁poor	-2356
▁circ	-2357
ote	-2358
▁hang	-2359
erpill	-2360
▁caterpill	-2361
▁esc	-2362
▁flag	-2363
oop	-2364
▁pin	-2365
▁grumpy	-2366
▁van	-2367
iddle	-2368
ella	-2369
▁dinosaur	-2370
▁yourself	-2371
ano	-2372
issors	-2373
uce	-2374
▁answered	-2375
▁cries	-2376
Are	-2377
▁often	-2378
itter	-2379
▁twirl	-2380
selves	-2381
▁chest	-2382
sist	-2383
▁scissors	-2384
▁hopping	-2385
▁tears	-2386
pack	-2387
gly	-2388
Sorry	-2389
mb	-2390
▁mummy	-2391
Ben	-2392
▁Dan	-2393
▁Today	-2394
▁ugly	-2395
▁burn	-2396
▁cand	-2397
ensive	-2398
▁deer	-2399
▁drop	-2400
illed	-2401
▁fil	-2402
▁excitement	-2403
era	-2404
izzy	-2405
▁caterpillar	-2406
▁lit	-2407
▁working	-2408
▁middle	-2409
▁expensive	-2410
▁scr	-2411
▁saved	-2412
▁taken	-2413
▁ok	-2414
▁true	-2415
▁wagged	-2416
▁ones	-2417
▁pleased	-2418
▁crown	-2419
▁spend	-2420
▁boring	-2421
▁picks	-2422
▁leg	-2423
que	-2424
oof	-2425
ugar	-2426
▁vase	-2427
▁tent	-2428
▁asking	-2429
body	-2430
ual	-2431
▁brush	-2432
▁tie	-2433
▁Bobby	-2434
ates	-2435
▁vegetables	-2436
ecially	-2437
▁giggled	-2438
▁boss	-2439
ete	-2440
Who	-2441
▁mistake	-2442
▁cage	-2443
ser	-2444
▁gets	-2445
light	-2446
▁rocket	-2447
▁cap	-2448
▁mir	-2449
▁comfortable	-2450
▁sugar	-2451
▁eld	-2452
▁stuff	-2453
▁packed	-2454
▁dancing	-2455
pecially	-2456
▁especially	-2457
▁wander	-2458
▁clown	-2459
▁medic	-2460
▁number	-2461
▁press	-2462
▁sight	-2463
▁knight	-2464
ggs	-2465
ots	-2466
▁fruits	-2467
iness	-2468
▁Eventually	-2469
▁eggs	-2470
▁lying	-2471
▁drum	-2472
▁pus	-2473
▁fake	-2474
▁dest	-2475
ror	-2476
▁medicine	-2477
▁walks	-2478
▁distance	-2479
aged	-2480
▁glue	-2481
▁Mandy	-2482
▁splashed	-2483
▁No	-2484
▁sweetie	-2485
▁bake	-2486
▁flut	-2487
▁bone	-2488
▁Blue	-2489
▁drawing	-2490
▁moving	-2491
▁disappeared	-2492
▁week	-2493
▁lead	-2494
▁smelly	-2495
▁clap	-2496
▁lemon	-2497
▁become	-2498
▁change	-2499
▁pray	-2500
▁feathers	-2501
ha	-2502
▁moms	-2503
▁lose	-2504
▁If	-2505
▁mov	-2506
▁licked	-2507
▁calling	-2508
▁twist	-2509
▁dogs	-2510
▁bathroom	-2511
▁Pete	-2512
▁playground	-2513
ory	-2514
yal	-2515
▁Fred	-2516
▁fis	-2517
▁lazy	-2518
▁roar	-2519
▁elderly	-2520
▁weak	-2521
▁incred	-2522
▁cri	-2523
▁gar	-2524
?".	-2525
▁body	-2526
Now	-2527
▁horn	-2528
▁exam	-2529
▁crack	-2530
▁questions	-2531
▁add	-2532
▁wrote	-2533
▁yog	-2534
▁yours	-2535
▁noisy	-2536
▁father	-2537
▁mirror	-2538
uggest	-2539
▁mic	-2540
▁nod	-2541
▁suggest	-2542
ating	-2543
elp	-2544
eez	-2545
▁fluffy	-2546
▁skipped	-2547
▁ed	-2548
▁wheel	-2549
▁eager	-2550
▁loyal	-2551
▁lamp	-2552
▁dish	-2553
▁ext	-2554
▁clear	-2555
▁famous	-2556
▁Ellie	-2557
land	-2558
▁End	-2559
▁dig	-2560
▁ruined	-2561
▁stones	-2562
ination	-2563
▁rich	-2564
▁rare	-2565
▁ord	-2566
▁tape	-2567
▁sell	-2568
▁drank	-2569
▁content	-2570
▁figure	-2571
▁queen	-2572
▁march	-2573
▁incredible	-2574
▁glow	-2575
▁map	-2576
▁shows	-2577
▁rid	-2578
ti	-2579
▁check	-2580
▁juicy	-2581
▁soap	-2582
▁covered	-2583
▁ind	-2584
▁balls	-2585
▁sailed	-2586
▁relax	-2587
▁aw	-2588
▁shoot	-2589
illi	-2590
hip	-2591
▁team	-2592
ately	-2593
▁measure	-2594
▁decide	-2595
▁realised	-2596
umbled	-2597
▁discovered	-2598
▁coins	-2599
▁needs	-2600
▁borrow	-2601
▁swan	-2602
▁straw	-2603
▁Ella	-2604
fic	-2605
▁adventur	-2606
cept	-2607
Help	-2608
▁cleaned	-2609
▁branches	-2610
▁towel	-2611
▁boys	-2612
▁extra	-2613
▁ham	-2614
asing	-2615
imp	-2616
▁Mar	-2617
Well	-2618
▁board	-2619
▁Bella	-2620
Be	-2621
▁chicken	-2622
▁barn	-2623
▁mod	-2624
▁tiger	-2625
▁motor	-2626
▁tag	-2627
▁adventurous	-2628
▁joke	-2629
▁diffic	-2630
▁offered	-2631
▁fine	-2632
keep	-2633
▁balance	-2634
▁Brown	-2635
▁lifted	-2636
ique	-2637
▁bubbles	-2638
▁colourful	-2639
▁frown	-2640
▁Rose	-2641
▁turt	-2642
▁eye	-2643
▁thick	-2644
▁difficult	-2645
▁bottom	-2646
▁track	-2647
▁toug	-2648
alous	-2649
▁organized	-2650
▁cover	-2651
▁happening	-2652
▁unique	-2653
rag	-2654
▁jealous	-2655
▁dolp	-2656
▁hose	-2657
port	-2658
▁knife	-2659
▁weird	-2660
▁island	-2661
▁Bobo	-2662
cil	-2663
▁garage	-2664
▁Mrs	-2665
▁fright	-2666
▁managed	-2667
imed	-2668
▁hurts	-2669
▁pencil	-2670
▁once	-2671
▁word	-2672
ject	-2673
▁crawled	-2674
▁cost	-2675
▁learning	-2676
▁arg	-2677
▁circle	-2678
▁saying	-2679
▁Dave	-2680
▁kindness	-2681
ured	-2682
Me	-2683
▁berries	-2684
▁tough	-2685
olog	-2686
▁Mike	-2687
▁Fr	-2688
▁mighty	-2689
▁balloons	-2690
▁pointing	-2691
▁bald	-2692
▁chase	-2693
▁favour	-2694
ready	-2695
▁wand	-2696
ddy	-2697
▁ter	-2698
lies	-2699
keeper	-2700
▁shake	-2701
iv	-2702
▁jewel	-2703
▁louder	-2704
ipper	-2705
▁added	-2706
ages	-2707
▁batter	-2708
▁sil	-2709
▁hunt	-2710
▁guit	-2711
▁harder	-2712
▁guess	-2713
▁apolog	-2714
▁unus	-2715
▁edge	-2716
head	-2717
▁already	-2718
▁four	-2719
▁Tweety	-2720
▁ang	-2721
▁spun	-2722
▁favourite	-2723
▁fool	-2724
▁norm	-2725
▁whale	-2726
ipp	-2727
▁unusual	-2728
▁libr	-2729
▁valu	-2730
rage	-2731
alk	-2732
▁enjoying	-2733
▁dizzy	-2734
▁Grandpa	-2735
aw	-2736
▁hats	-2737
▁pump	-2738
▁belonged	-2739
▁grace	-2740
▁wrapped	-2741
▁cheerful	-2742
▁smoke	-2743
uggled	-2744
▁impressed	-2745
▁strawber	-2746
▁trucks	-2747
▁record	-2748
▁giving	-2749
▁sword	-2750
▁market	-2751
▁grown	-2752
▁ref	-2753
▁laughs	-2754
▁trunk	-2755
▁normal	-2756
anged	-2757
▁grand	-2758
▁hero	-2759
▁ears	-2760
▁guitar	-2761
▁loudly	-2762
ola	-2763
illiant	-2764
▁harm	-2765
▁turtle	-2766
▁banana	-2767
▁proudly	-2768
▁boxes	-2769
▁scare	-2770
ature	-2771
▁Soph	-2772
ilt	-2773
▁brilliant	-2774
▁choose	-2775
▁brothers	-2776
ery	-2777
▁circles	-2778
▁whisp	-2779
▁terri	-2780
Here	-2781
▁bossy	-2782
Tim	-2783
▁dreamed	-2784
▁against	-2785
▁escape	-2786
ym	-2787
▁goat	-2788
▁invited	-2789
▁skin	-2790
▁cab	-2791
▁helps	-2792
gy	-2793
cient	-2794
▁compet	-2795
▁pil	-2796
ipe	-2797
▁painting	-2798
▁means	-2799
▁melt	-2800
▁frightened	-2801
▁accept	-2802
fast	-2803
▁pee	-2804
▁flash	-2805
▁safely	-2806
▁depend	-2807
▁buttons	-2808
▁slipped	-2809
▁design	-2810
▁stubb	-2811
▁birdie	-2812
▁jack	-2813
▁wrap	-2814
▁cabin	-2815
▁valuable	-2816
▁crayon	-2817
▁wake	-2818
▁stream	-2819
▁walls	-2820
▁happiness	-2821
ouses	-2822
▁breakfast	-2823
▁log	-2824
erry	-2825
▁ancient	-2826
edient	-2827
▁study	-2828
▁successful	-2829
▁clay	-2830
emo	-2831
orge	-2832
▁knows	-2833
▁foolish	-2834
▁Lola	-2835
▁toast	-2836
▁My	-2837
▁falls	-2838
ye	-2839
▁fridge	-2840
▁lean	-2841
▁Nemo	-2842
▁stubborn	-2843
▁unl	-2844
▁nicely	-2845
atch	-2846
apping	-2847
▁shape	-2848
omed	-2849
▁fier	-2850
▁Ge	-2851
▁cudd	-2852
▁rough	-2853
▁dreams	-2854
▁movie	-2855
▁space	-2856
▁houses	-2857
▁city	-2858
▁nosy	-2859
▁bloom	-2860
▁delicate	-2861
▁obedient	-2862
▁fierce	-2863
▁office	-2864
▁tomato	-2865
▁fat	-2866
▁grandpa	-2867
ado	-2868
az	-2869
laimed	-2870
▁icy	-2871
▁competit	-2872
▁suggested	-2873
▁shark	-2874
▁dead	-2875
▁notice	-2876
▁wagon	-2877
pes	-2878
▁exclaimed	-2879
▁mem	-2880
▁kinds	-2881
▁mixed	-2882
▁wiped	-2883
▁cher	-2884
▁useful	-2885
ext	-2886
▁poured	-2887
▁shells	-2888
uth	-2889
œLet	-2890
▁stri	-2891
▁lights	-2892
▁locked	-2893
▁sounded	-2894
▁tools	-2895
▁thu	-2896
▁stove	-2897
▁excitedly	-2898
▁explored	-2899
▁aunt	-2900
wards	-2901
▁egg	-2902
▁frag	-2903
▁rose	-2904
!".	-2905
▁son	-2906
oppy	-2907
▁shadow	-2908
▁times	-2909
▁cro	-2910
▁enc	-2911
▁bags	-2912
▁fountain	-2913
ention	-2914
oot	-2915
▁themselves	-2916
▁George	-2917
▁stumbled	-2918
▁bushes	-2919
ache	-2920
▁weal	-2921
dom	-2922
▁low	-2923
arry	-2924
▁showing	-2925
▁spoiled	-2926
rell	-2927
▁fingers	-2928
▁perform	-2929
▁lab	-2930
▁above	-2931
vice	-2932
▁thoughtful	-2933
▁resc	-2934
▁Ducky	-2935
▁independ	-2936
kn	-2937
▁smaller	-2938
▁dough	-2939
▁witch	-2940
na	-2941
▁fragile	-2942
▁dependable	-2943
▁raced	-2944
▁jog	-2945
ray	-2946
▁Whenever	-2947
arth	-2948
▁playful	-2949
inal	-2950
▁seem	-2951
▁helm	-2952
▁spinning	-2953
▁eng	-2954
▁tele	-2955
corn	-2956
▁clock	-2957
▁brightly	-2958
ines	-2959
▁print	-2960
▁rode	-2961
▁stretch	-2962
▁parrot	-2963
ormous	-2964
▁delighted	-2965
▁built	-2966
▁admired	-2967
▁law	-2968
▁enormous	-2969
▁Cl	-2970
▁Sn	-2971
▁kicked	-2972
▁roof	-2973
▁counted	-2974
▁jam	-2975
▁swe	-2976
▁rat	-2977
▁practice	-2978
reen	-2979
▁orig	-2980
▁ways	-2981
▁changed	-2982
▁shone	-2983
▁sunfl	-2984
▁cop	-2985
▁reminded	-2986
▁twig	-2987
▁acorn	-2988
ither	-2989
▁cam	-2990
ience	-2991
▁sniff	-2992
▁zip	-2993
eeze	-2994
▁hammer	-2995
▁independent	-2996
▁Your	-2997
▁Bill	-2998
▁using	-2999
▁bitter	-3000
▁handed	-3001
▁whispered	-3002
▁hoop	-3003
known	-3004
▁Toby	-3005
mbrell	-3006
▁chose	-3007
▁chir	-3008
anut	-3009
▁loll	-3010
▁jolly	-3011
▁cone	-3012
▁umbrell	-3013
▁tunn	-3014
▁solve	-3015
▁stronger	-3016
▁bees	-3017
▁serious	-3018
ipop	-3019
▁original	-3020
▁steal	-3021
▁tummy	-3022
▁beak	-3023
▁brace	-3024
▁terrible	-3025
œYes	-3026
▁mis	-3027
▁popcorn	-3028
▁fre	-3029
▁lollipop	-3030
▁painted	-3031
▁boats	-3032
▁allowed	-3033
▁hairy	-3034
ict	-3035
▁moder	-3036
iable	-3037
▁sauce	-3038
▁cleaning	-3039
▁unknown	-3040
▁leaving	-3041
▁dust	-3042
▁gasped	-3043
▁finding	-3044
▁joined	-3045
▁guard	-3046
▁salad	-3047
▁potato	-3048
het	-3049
▁bean	-3050
▁pumpkin	-3051
iew	-3052
▁picking	-3053
▁clum	-3054
inary	-3055
▁dove	-3056
anger	-3057
▁bump	-3058
▁half	-3059
▁sink	-3060
amond	-3061
▁costum	-3062
uring	-3063
▁Joey	-3064
▁yet	-3065
robe	-3066
▁metal	-3067
▁tank	-3068
▁bounce	-3069
▁reliable	-3070
▁post	-3071
▁tor	-3072
▁view	-3073
▁doesn	-3074
▁those	-3075
▁forth	-3076
aghet	-3077
aghetti	-3078
▁diamond	-3079
▁dolphin	-3080
▁advice	-3081
com	-3082
▁hay	-3083
▁barber	-3084
▁modern	-3085
pid	-3086
▁rubb	-3087
▁stamp	-3088
▁thinking	-3089
▁gem	-3090
▁ing	-3091
▁holds	-3092
gu	-3093
ebra	-3094
▁pirate	-3095
ugged	-3096
▁marble	-3097
▁create	-3098
How	-3099
▁regular	-3100
▁Pe	-3101
redient	-3102
▁ingredient	-3103
▁clumsy	-3104
▁sleeping	-3105
▁searching	-3106
▁stairs	-3107
▁wealthy	-3108
▁yarn	-3109
See	-3110
▁rushed	-3111
▁stupid	-3112
▁prep	-3113
ilty	-3114
▁telling	-3115
▁spaghetti	-3116
▁guilty	-3117
▁cheap	-3118
▁peanut	-3119
▁goose	-3120
▁char	-3121
œWhat	-3122
▁Ro	-3123
cu	-3124
▁rub	-3125
▁magn	-3126
ations	-3127
▁flex	-3128
▁Polly	-3129
▁compass	-3130
▁opens	-3131
▁mask	-3132
▁patch	-3133
▁stat	-3134
▁arrow	-3135
▁zebra	-3136
▁engine	-3137
▁Andy	-3138
▁Sophie	-3139
io	-3140
▁thunder	-3141
▁knock	-3142
▁square	-3143
▁Ba	-3144
illa	-3145
eezed	-3146
irsty	-3147
▁angel	-3148
▁Bear	-3149
▁cur	-3150
▁graceful	-3151
▁camera	-3152
▁umbrella	-3153
cod	-3154
▁driving	-3155
▁bull	-3156
▁crazy	-3157
▁shiver	-3158
▁washed	-3159
▁carrying	-3160
▁stage	-3161
isk	-3162
▁popular	-3163
▁beet	-3164
▁dull	-3165
umbers	-3166
œIt	-3167
▁missing	-3168
▁Alex	-3169
▁sparkled	-3170
▁friendship	-3171
▁truth	-3172
shion	-3173
▁meal	-3174
▁seeds	-3175
fa	-3176
Go	-3177
▁flexible	-3178
▁impressive	-3179
▁sne	-3180
▁tied	-3181
▁pebble	-3182
time	-3183
▁careless	-3184
▁library	-3185
▁imagined	-3186
▁comb	-3187
▁fresh	-3188
▁deliver	-3189
▁nature	-3190
▁shel	-3191
▁ending	-3192
▁destro	-3193
▁patter	-3194
▁jacket	-3195
▁persist	-3196
▁reward	-3197
▁handle	-3198
ision	-3199
▁rubbed	-3200
▁ingredients	-3201
▁dreaming	-3202
▁shocked	-3203
ric	-3204
▁prize	-3205
oomy	-3206
▁sudden	-3207
▁crocod	-3208
▁load	-3209
▁enth	-3210
ief	-3211
ibb	-3212
▁pige	-3213
▁pattern	-3214
▁compassion	-3215
▁envel	-3216
▁Next	-3217
▁flashlight	-3218
▁thirsty	-3219
▁sadly	-3220
▁encou	-3221
▁stranger	-3222
arsh	-3223
ince	-3224
▁enthus	-3225
▁wheels	-3226
▁desk	-3227
œLetâ	-3228
ement	-3229
Re	-3230
▁reading	-3231
▁wire	-3232
▁discover	-3233
▁early	-3234
▁mailbox	-3235
▁fork	-3236
▁suit	-3237
▁Charl	-3238
▁numbers	-3239
▁tem	-3240
▁peeked	-3241
▁penny	-3242
▁butterflies	-3243
awn	-3244
▁cryst	-3245
▁spilled	-3246
▁bracelet	-3247
▁torn	-3248
▁rug	-3249
▁gum	-3250
▁stops	-3251
loo	-3252
▁Paul	-3253
▁rece	-3254
▁env	-3255
▁comput	-3256
▁ahead	-3257
▁spring	-3258
bled	-3259
▁order	-3260
▁towers	-3261
comfort	-3262
▁sorts	-3263
▁object	-3264
ellig	-3265
▁wing	-3266
▁bent	-3267
▁anx	-3268
▁cere	-3269
▁surf	-3270
oe	-3271
▁pengu	-3272
▁earth	-3273
▁intellig	-3274
▁warned	-3275
▁windows	-3276
▁spoke	-3277
▁pow	-3278
▁pup	-3279
gest	-3280
▁humble	-3281
There	-3282
▁uncomfort	-3283
▁avo	-3284
▁note	-3285
▁pant	-3286
▁uncomfortable	-3287
▁placed	-3288
Yay	-3289
iches	-3290
▁sunflower	-3291
▁pale	-3292
▁travel	-3293
▁super	-3294
▁badly	-3295
▁older	-3296
▁slides	-3297
▁anxious	-3298
ikes	-3299
▁biggest	-3300
▁scale	-3301
▁compl	-3302
▁couldnâ	-3303
▁stack	-3304
▁flute	-3305
▁trap	-3306
▁statue	-3307
▁scoot	-3308
▁counting	-3309
▁growing	-3310
▁cooking	-3311
Ow	-3312
▁complet	-3313
▁liz	-3314
▁tunnel	-3315
▁beetle	-3316
▁celebrate	-3317
host	-3318
▁mel	-3319
▁cupboard	-3320
▁Here	-3321
▁mush	-3322
They	-3323
▁sofa	-3324
▁nail	-3325
▁harmless	-3326
▁scatter	-3327
▁Pat	-3328
▁beauty	-3329
▁mole	-3330
▁deaf	-3331
▁value	-3332
▁nurse	-3333
▁perm	-3334
▁er	-3335
▁shut	-3336
▁persistent	-3337
▁jumps	-3338
▁crocodile	-3339
▁hung	-3340
▁ghost	-3341
▁gifted	-3342
▁refused	-3343
▁charming	-3344
▁trick	-3345
▁Give	-3346
▁neat	-3347
▁names	-3348
▁courage	-3349
opus	-3350
▁yawn	-3351
▁flour	-3352
ctopus	-3353
▁crane	-3354
▁curt	-3355
▁pretending	-3356
cream	-3357
▁pony	-3358
▁cereal	-3359
▁base	-3360
▁sandwiches	-3361
▁Hen	-3362
ices	-3363
▁raven	-3364
▁snuggled	-3365
▁curtain	-3366
▁destroy	-3367
▁support	-3368
▁tur	-3369
▁ordinary	-3370
▁chasing	-3371
▁univer	-3372
▁Look	-3373
aid	-3374
▁question	-3375
▁envelope	-3376
aches	-3377
▁drawer	-3378
▁triang	-3379
▁vi	-3380
▁camp	-3381
▁sett	-3382
ud	-3383
▁computer	-3384
▁octopus	-3385
▁attract	-3386
▁rules	-3387
▁crawl	-3388
▁lively	-3389
▁send	-3390
▁gloomy	-3391
▁cartoon	-3392
▁uncle	-3393
ips	-3394
▁intelligent	-3395
▁may	-3396
▁piano	-3397
▁speed	-3398
▁package	-3399
▁blueber	-3400
▁shaking	-3401
▁fu	-3402
▁helmet	-3403
▁crystal	-3404
▁needle	-3405
▁mushroom	-3406
▁turkey	-3407
▁collar	-3408
He	-3409
▁parade	-3410
▁creatures	-3411
stri	-3412
heart	-3413
œThat	-3414
▁hurry	-3415
▁twirled	-3416
▁phot	-3417
▁lizard	-3418
erable	-3419
aff	-3420
orant	-3421
ubby	-3422
▁alert	-3423
▁miserable	-3424
▁thief	-3425
gust	-3426
und	-3427
▁station	-3428
▁soldier	-3429
▁hunter	-3430
▁Grace	-3431
▁pepper	-3432
ceed	-3433
▁task	-3434
▁Will	-3435
▁anywhere	-3436
▁dug	-3437
▁disgust	-3438
▁bicy	-3439
▁fireman	-3440
▁ener	-3441
cut	-3442
▁Henry	-3443
▁carp	-3444
iest	-3445
▁Before	-3446
ses	-3447
▁wishes	-3448
▁seal	-3449
▁resist	-3450
▁led	-3451
▁vide	-3452
▁beep	-3453
▁ignorant	-3454
▁bandage	-3455
▁stickers	-3456
coa	-3457
▁Brownie	-3458
▁Charlie	-3459
▁screen	-3460
▁radio	-3461
▁bounced	-3462
▁helpless	-3463
▁Annie	-3464
tter	-3465
▁trash	-3466
Give	-3467
▁second	-3468
▁leash	-3469
▁repe	-3470
▁practiced	-3471
▁muff	-3472
▁shine	-3473
▁chance	-3474
▁letters	-3475
▁attractive	-3476
▁mill	-3477
▁impat	-3478
▁cricket	-3479
▁stirred	-3480
▁jeep	-3481
▁stretched	-3482
▁nobody	-3483
urb	-3484
▁pasta	-3485
▁thread	-3486
▁cube	-3487
▁pand	-3488
▁chubby	-3489
▁tooth	-3490
ummer	-3491
▁Sh	-3492
ne	-3493
▁pigeon	-3494
▁jet	-3495
▁gir	-3496
▁compassionate	-3497
ccol	-3498
If	-3499
▁club	-3500
ccoli	-3501
▁trump	-3502
▁disturb	-3503
orable	-3504
▁decorate	-3505
▁Tweetie	-3506
▁Jerry	-3507
▁cocoa	-3508
▁brighter	-3509
▁jug	-3510
▁impatient	-3511
▁steps	-3512
▁tire	-3513
▁competitive	-3514
arian	-3515
▁further	-3516
▁otter	-3517
▁respectful	-3518
▁succeed	-3519
▁troubled	-3520
▁pressed	-3521
olin	-3522
▁Bet	-3523
▁itself	-3524
aked	-3525
▁bet	-3526
▁ostri	-3527
noon	-3528
▁candle	-3529
▁mug	-3530
▁afternoon	-3531
▁attic	-3532
▁restless	-3533
▁starts	-3534
▁pun	-3535
▁Sandy	-3536
▁Tr	-3537
▁tap	-3538
▁somewhere	-3539
illie	-3540
▁Are	-3541
▁ribb	-3542
aurant	-3543
stic	-3544
▁dess	-3545
▁quar	-3546
▁carpet	-3547
▁anyway	-3548
▁shouts	-3549
▁shoe	-3550
▁disgusting	-3551
▁Lilly	-3552
▁adorable	-3553
▁restaurant	-3554
▁skip	-3555
▁leop	-3556
▁fort	-3557
gn	-3558
▁pants	-3559
▁vine	-3560
▁Where	-3561
▁tray	-3562
▁nuts	-3563
▁waff	-3564
▁case	-3565
come	-3566
▁gor	-3567
▁fearful	-3568
▁screw	-3569
▁envious	-3570
▁sweetheart	-3571
opter	-3572
▁cards	-3573
▁allig	-3574
icopter	-3575
iastic	-3576
▁distant	-3577
▁broccoli	-3578
▁enthusiastic	-3579
▁Danny	-3580
▁hipp	-3581
▁Mag	-3582
▁filthy	-3583
▁Lee	-3584
▁giggle	-3585
▁exper	-3586
▁trumpet	-3587
▁cooked	-3588
▁helicopter	-3589
▁monkeys	-3590
▁Everything	-3591
night	-3592
▁reco	-3593
▁por	-3594
irit	-3595
▁sandbox	-3596
aroo	-3597
angaroo	-3598
▁hook	-3599
▁harsh	-3600
▁Would	-3601
▁bri	-3602
▁admire	-3603
▁nowhere	-3604
▁ten	-3605
▁backpack	-3606
gging	-3607
▁soar	-3608
▁sent	-3609
▁belt	-3610
▁batht	-3611
gie	-3612
▁explain	-3613
▁scooter	-3614
▁ants	-3615
▁Snow	-3616
▁meas	-3617
opl	-3618
▁poem	-3619
eropl	-3620
▁country	-3621
cycle	-3622
▁bathtub	-3623
▁pipe	-3624
▁aeropl	-3625
▁barking	-3626
▁quite	-3627
▁unpack	-3628
stairs	-3629
par	-3630
▁cows	-3631
▁speak	-3632
▁kangaroo	-3633
▁lid	-3634
nna	-3635
▁squash	-3636
▁Maria	-3637
▁leopard	-3638
▁mama	-3639
▁happier	-3640
▁spell	-3641
▁repair	-3642
▁Red	-3643
imi	-3644
▁listening	-3645
▁bicycle	-3646
▁separ	-3647
▁Jess	-3648
▁Sm	-3649
▁Pap	-3650
▁summer	-3651
▁stared	-3652
▁grabs	-3653
▁message	-3654
▁breat	-3655
▁Millie	-3656
uct	-3657
▁didnâ	-3658
▁ostrich	-3659
▁firework	-3660
▁human	-3661
▁loop	-3662
▁given	-3663
▁comet	-3664
▁mule	-3665
hood	-3666
▁Baby	-3667
▁sort	-3668
▁impro	-3669
▁Bunny	-3670
▁gorilla	-3671
▁modest	-3672
▁paid	-3673
▁finds	-3674
year	-3675
▁yogurt	-3676
▁dessert	-3677
▁meat	-3678
▁obser	-3679
▁violin	-3680
▁ur	-3681
Bye	-3682
▁hedge	-3683
ipping	-3684
▁spirit	-3685
▁Ted	-3686
▁pulls	-3687
▁tripped	-3688
▁melon	-3689
▁jellyfish	-3690
▁split	-3691
▁Papa	-3692
▁paws	-3693
▁alligator	-3694
▁fle	-3695
▁rescue	-3696
▁size	-3697
▁holes	-3698
▁prov	-3699
ucked	-3700
▁Harry	-3701
▁roared	-3702
▁five	-3703
▁forgave	-3704
▁Mimi	-3705
▁cats	-3706
▁wheat	-3707
▁purse	-3708
▁recogn	-3709
▁hippo	-3710
▁pilot	-3711
▁hall	-3712
▁tax	-3713
▁sheet	-3714
▁pal	-3715
▁cact	-3716
▁inse	-3717
▁pushing	-3718
ophone	-3719
▁bikes	-3720
▁organize	-3721
ci	-3722
▁swinging	-3723
▁sle	-3724
▁raft	-3725
▁salt	-3726
▁scold	-3727
▁starting	-3728
▁shade	-3729
▁behave	-3730
▁bin	-3731
▁lightning	-3732
▁oat	-3733
▁rice	-3734
▁haircut	-3735
▁Buddy	-3736
▁brus	-3737
▁triangle	-3738
eer	-3739
▁buzz	-3740
▁Ros	-3741
▁energy	-3742
iskers	-3743
œYou	-3744
▁bur	-3745
▁knot	-3746
▁frowned	-3747
bul	-3748
▁lear	-3749
aled	-3750
▁learnt	-3751
▁either	-3752
▁porch	-3753
▁math	-3754
▁riding	-3755
▁ped	-3756
▁lip	-3757
lcano	-3758
seum	-3759
▁trains	-3760
Anna	-3761
ebook	-3762
▁ended	-3763
▁notebook	-3764
▁sticker	-3765
iling	-3766
inking	-3767
▁lend	-3768
▁wallet	-3769
▁luck	-3770
▁evening	-3771
reci	-3772
▁panda	-3773
▁cactus	-3774
▁Whiskers	-3775
▁jokes	-3776
▁chalk	-3777
▁bananas	-3778
▁papers	-3779
▁rod	-3780
▁museum	-3781
▁sweater	-3782
▁appreci	-3783
▁lions	-3784
▁palace	-3785
▁Ru	-3786
▁taxi	-3787
▁volcano	-3788
ube	-3789
▁shopkeeper	-3790
▁chain	-3791
▁strawberry	-3792
▁bears	-3793
▁rolling	-3794
▁boots	-3795
▁eras	-3796
▁hadn	-3797
astic	-3798
▁neighbour	-3799
▁barrel	-3800
▁shakes	-3801
ffe	-3802
▁micr	-3803
▁Tony	-3804
icer	-3805
ffee	-3806
ooped	-3807
▁silver	-3808
urch	-3809
▁laund	-3810
▁alive	-3811
▁smells	-3812
▁mild	-3813
play	-3814
▁reind	-3815
▁sock	-3816
▁laundry	-3817
▁steak	-3818
▁avoc	-3819
▁ink	-3820
▁pole	-3821
▁strugg	-3822
iron	-3823
▁pushes	-3824
▁putting	-3825
▁visited	-3826
▁goal	-3827
▁softly	-3828
▁magnet	-3829
▁judge	-3830
edy	-3831
▁James	-3832
▁tricks	-3833
▁drawings	-3834
▁microphone	-3835
▁clapping	-3836
▁pad	-3837
▁ol	-3838
▁hive	-3839
▁shield	-3840
▁tube	-3841
▁leaned	-3842
▁colours	-3843
▁sailor	-3844
▁shovel	-3845
▁airport	-3846
▁zoomed	-3847
▁falling	-3848
▁rag	-3849
▁belongs	-3850
▁shelter	-3851
▁Bun	-3852
▁unlock	-3853
▁sprink	-3854
▁Inst	-3855
▁checked	-3856
elery	-3857
▁insist	-3858
▁penguin	-3859
▁quarrel	-3860
happy	-3861
▁ambul	-3862
▁climbing	-3863
▁marched	-3864
▁gro	-3865
▁display	-3866
▁reindeer	-3867
cast	-3868
hino	-3869
▁saus	-3870
ense	-3871
▁aeroplane	-3872
▁dive	-3873
▁dishes	-3874
ophy	-3875
▁polish	-3876
▁barks	-3877
ges	-3878
▁avail	-3879
▁Maggie	-3880
▁donâ	-3881
▁fields	-3882
▁grapes	-3883
▁sandcast	-3884
▁ambulance	-3885
▁peek	-3886
▁Or	-3887
ait	-3888
▁apologized	-3889
▁soil	-3890
▁yach	-3891
▁coffee	-3892
▁skill	-3893
sely	-3894
▁costume	-3895
▁elev	-3896
▁oy	-3897
▁trophy	-3898
▁feelings	-3899
▁planet	-3900
▁hoping	-3901
anic	-3902
▁film	-3903
▁prun	-3904
▁art	-3905
▁rubber	-3906
▁unhappy	-3907
ron	-3908
▁drops	-3909
▁shrimp	-3910
nger	-3911
▁medal	-3912
▁kitty	-3913
▁thanks	-3914
▁raining	-3915
▁men	-3916
chanic	-3917
▁stom	-3918
▁minute	-3919
▁elevator	-3920
▁celery	-3921
▁cord	-3922
▁onion	-3923
▁rhino	-3924
▁available	-3925
ected	-3926
▁eraser	-3927
▁incl	-3928
▁page	-3929
▁short	-3930
▁yacht	-3931
reeze	-3932
▁fisher	-3933
▁shouldn	-3934
▁perfectly	-3935
▁imagine	-3936
▁wool	-3937
▁marry	-3938
▁winter	-3939
▁basketball	-3940
▁mechanic	-3941
▁diary	-3942
nam	-3943
▁bul	-3944
▁herb	-3945
▁flies	-3946
▁complete	-3947
▁rever	-3948
▁appl	-3949
▁Ab	-3950
▁closely	-3951
aused	-3952
▁cardboard	-3953
▁insect	-3954
▁magaz	-3955
▁eagerly	-3956
▁player	-3957
▁journal	-3958
▁Smith	-3959
Ha	-3960
enny	-3961
▁vend	-3962
▁baking	-3963
▁quit	-3964
▁furn	-3965
▁glove	-3966
iture	-3967
▁Clara	-3968
▁disag	-3969
▁furniture	-3970
▁stuffed	-3971
▁tub	-3972
▁Jul	-3973
▁breaks	-3974
▁bulb	-3975
▁imagination	-3976
▁treasures	-3977
▁Miss	-3978
▁church	-3979
gen	-3980
ecause	-3981
▁counter	-3982
▁wife	-3983
▁headed	-3984
▁cooler	-3985
any	-3986
azz	-3987
▁pair	-3988
▁freez	-3989
▁frogs	-3990
▁tut	-3991
quit	-3992
▁skull	-3993
mand	-3994
ories	-3995
▁pit	-3996
▁knob	-3997
ween	-3998
▁factor	-3999
▁switch	-4000
▁football	-4001
place	-4002
▁offer	-4003
ides	-4004
▁sunset	-4005
▁between	-4006
▁lie	-4007
▁Instead	-4008
ifl	-4009
aulifl	-4010
▁cheek	-4011
▁sym	-4012
▁swung	-4013
▁factory	-4014
▁cups	-4015
▁motorcycle	-4016
Dad	-4017
pe	-4018
▁chirp	-4019
right	-4020
▁mos	-4021
quito	-4022
▁flame	-4023
▁twink	-4024
..	-4025
▁shouting	-4026
nament	-4027
▁painter	-4028
▁golf	-4029
▁peach	-4030
▁ornament	-4031
kelet	-4032
▁blowing	-4033
▁hut	-4034
affe	-4035
▁sung	-4036
▁hotel	-4037
▁seeing	-4038
▁folder	-4039
▁caulifl	-4040
▁vendor	-4041
ccer	-4042
lass	-4043
▁video	-4044
▁mixer	-4045
izes	-4046
bol	-4047
▁throws	-4048
▁pirates	-4049
▁created	-4050
orses	-4051
▁heads	-4052
▁oil	-4053
▁kay	-4054
▁May	-4055
▁frame	-4056
▁mosquito	-4057
angu	-4058
mm	-4059
▁cushion	-4060
▁soccer	-4061
▁fisherman	-4062
▁coal	-4063
zzy	-4064
▁symbol	-4065
▁horses	-4066
▁cable	-4067
ceros	-4068
▁popped	-4069
▁langu	-4070
▁wipe	-4071
ab	-4072
▁Ste	-4073
▁pine	-4074
▁attention	-4075
▁skelet	-4076
▁battery	-4077
▁powder	-4078
▁cauliflower	-4079
▁stud	-4080
▁laser	-4081
▁God	-4082
render	-4083
▁forgotten	-4084
▁weather	-4085
rod	-4086
▁lives	-4087
▁mop	-4088
▁fishing	-4089
▁celebrated	-4090
▁ax	-4091
▁rot	-4092
▁since	-4093
▁trail	-4094
▁Iâ	-4095
elcome	-4096
aws	-4097
▁maze	-4098
ef	-4099
▁photo	-4100
ites	-4101
▁yoga	-4102
▁surround	-4103
▁waving	-4104
▁slept	-4105
▁sneak	-4106
▁anch	-4107
▁dear	-4108
unately	-4109
▁giraffe	-4110
▁introd	-4111
▁rhinoceros	-4112
▁poke	-4113
▁swamp	-4114
ple	-4115
▁flea	-4116
▁points	-4117
▁Rosie	-4118
▁itch	-4119
▁point	-4120
▁glowing	-4121
▁itâ	-4122
▁fireplace	-4123
▁breeze	-4124
ney	-4125
▁True	-4126
lasses	-4127
▁sub	-4128
▁vet	-4129
▁sunglasses	-4130
Your	-4131
▁kingdom	-4132
▁memories	-4133
▁tutor	-4134
▁streng	-4135
▁tuna	-4136
▁iron	-4137
Max	-4138
▁reve	-4139
▁vest	-4140
▁Tina	-4141
spap	-4142
▁petals	-4143
▁fog	-4144
▁axe	-4145
▁mistakes	-4146
▁complain	-4147
▁baseball	-4148
▁dancer	-4149
▁chickens	-4150
▁parent	-4151
▁ig	-4152
hero	-4153
▁newspap	-4154
▁strength	-4155
▁greedy	-4156
▁ceiling	-4157
ckey	-4158
▁squirrels	-4159
▁hockey	-4160
▁igloo	-4161
▁sir	-4162
▁grin	-4163
chie	-4164
▁anchor	-4165
▁skeleton	-4166
rosc	-4167
▁sniffed	-4168
▁grocer	-4169
▁superhero	-4170
▁argue	-4171
▁napkin	-4172
▁golden	-4173
ues	-4174
▁hanging	-4175
▁trave	-4176
▁musician	-4177
medi	-4178
▁skirt	-4179
roscope	-4180
▁staff	-4181
▁temple	-4182
▁unif	-4183
▁agree	-4184
▁sque	-4185
▁bury	-4186
mediately	-4187
▁theater	-4188
▁discu	-4189
▁uniform	-4190
▁eaten	-4191
▁slipper	-4192
▁welcomed	-4193
▁seas	-4194
▁shoulder	-4195
▁zipper	-4196
▁quietly	-4197
▁meeting	-4198
ssible	-4199
▁lime	-4200
▁invest	-4201
istol	-4202
▁microscope	-4203
sing	-4204
oh	-4205
▁pinch	-4206
chair	-4207
▁flapped	-4208
▁slippery	-4209
▁accepted	-4210
▁fought	-4211
▁investig	-4212
erc	-4213
▁pistol	-4214
▁doors	-4215
▁miner	-4216
reek	-4217
▁radish	-4218
▁plastic	-4219
▁throwing	-4220
▁calls	-4221
▁bouncing	-4222
tress	-4223
▁mattress	-4224
men	-4225
▁surrender	-4226
aces	-4227
▁cob	-4228
▁pear	-4229
▁creek	-4230
▁kayak	-4231
▁vroom	-4232
house	-4233
tain	-4234
▁moves	-4235
▁sticky	-4236
▁lawy	-4237
▁novel	-4238
Wait	-4239
alley	-4240
▁cub	-4241
▁avocado	-4242
▁cared	-4243
▁suff	-4244
▁freezer	-4245
▁lotion	-4246
aud	-4247
case	-4248
ison	-4249
▁First	-4250
te	-4251
ler	-4252
was	-4253
▁fauc	-4254
▁armchair	-4255
▁writing	-4256
inked	-4257
▁reef	-4258
▁makeup	-4259
Timmy	-4260
▁mystery	-4261
▁valley	-4262
web	-4263
▁tug	-4264
▁investigate	-4265
▁news	-4266
▁sailing	-4267
▁cherries	-4268
▁regret	-4269
▁crib	-4270
llie	-4271
washer	-4272
imney	-4273
▁exerc	-4274
▁oyster	-4275
▁faucet	-4276
▁agre	-4277
▁splashing	-4278
▁ticket	-4279
▁collected	-4280
▁worth	-4281
▁chimney	-4282
▁toil	-4283
▁presents	-4284
▁dishwasher	-4285
▁magazine	-4286
▁happens	-4287
▁sprayed	-4288
▁wags	-4289
œItâ	-4290
▁prevent	-4291
▁cobweb	-4292
▁quack	-4293
▁veil	-4294
▁castles	-4295
▁entered	-4296
▁tear	-4297
▁shrugged	-4298
▁Freddy	-4299
▁har	-4300
▁passport	-4301
▁applaud	-4302
▁chess	-4303
▁separate	-4304
▁scolded	-4305
Thanks	-4306
▁weigh	-4307
▁toilet	-4308
▁alarm	-4309
ives	-4310
▁See	-4311
▁blankets	-4312
▁rake	-4313
▁ignored	-4314
▁tucked	-4315
▁lawyer	-4316
▁choice	-4317
ived	-4318
▁hopes	-4319
▁coats	-4320
▁attach	-4321
sit	-4322
▁candles	-4323
▁kisses	-4324
▁follows	-4325
▁appro	-4326
▁classroom	-4327
ring	-4328
▁puddles	-4329
▁easily	-4330
▁Me	-4331
▁apart	-4332
ety	-4333
▁disappear	-4334
▁Sad	-4335
▁beef	-4336
▁chairs	-4337
▁burned	-4338
▁bother	-4339
▁Milly	-4340
▁letting	-4341
▁straight	-4342
eterin	-4343
eterinarian	-4344
▁yield	-4345
▁ward	-4346
▁dressed	-4347
▁cane	-4348
▁trusted	-4349
▁language	-4350
▁sizes	-4351
▁veterinarian	-4352
▁raz	-4353
▁teleph	-4354
raged	-4355
▁caring	-4356
▁planes	-4357
▁wardrobe	-4358
▁jewelry	-4359
atched	-4360
▁blinked	-4361
Sam	-4362
iday	-4363
▁shower	-4364
▁rise	-4365
▁missile	-4366
▁keeping	-4367
▁lawn	-4368
▁requ	-4369
▁stable	-4370
▁cabinet	-4371
▁crossed	-4372
▁oak	-4373
▁ble	-4374
▁However	-4375
▁bookshe	-4376
vision	-4377
▁stro	-4378
▁telephone	-4379
▁newspaper	-4380
mend	-4381
▁claws	-4382
▁rooms	-4383
▁whisper	-4384
▁sigh	-4385
▁puzzles	-4386
▁aut	-4387
▁trade	-4388
▁incre	-4389
ival	-4390
▁cell	-4391
▁tornado	-4392
▁scratch	-4393
una	-4394
anges	-4395
▁Ruby	-4396
▁bookcase	-4397
▁inf	-4398
ampoo	-4399
▁blueberries	-4400
▁snap	-4401
▁amazement	-4402
▁perfu	-4403
ction	-4404
ommend	-4405
▁squeezed	-4406
▁bookshelf	-4407
▁recommend	-4408
▁opera	-4409
▁subway	-4410
▁pra	-4411
atie	-4412
▁gym	-4413
▁delay	-4414
▁grill	-4415
▁Help	-4416
▁razor	-4417
▁blouse	-4418
▁request	-4419
▁crawling	-4420
▁pur	-4421
▁poked	-4422
€.	-4423
▁television	-4424
▁bill	-4425
▁hol	-4426
ggy	-4427
▁following	-4428
omes	-4429
iction	-4430
▁shampoo	-4431
▁file	-4432
▁licks	-4433
Sara	-4434
▁spear	-4435
▁squeeze	-4436
▁holiday	-4437
Because	-4438
And	-4439
▁experience	-4440
▁lumber	-4441
▁Is	-4442
▁improve	-4443
▁mint	-4444
▁perfume	-4445
▁serve	-4446
▁demand	-4447
▁steam	-4448
▁cliff	-4449
▁ringing	-4450
▁crow	-4451
ictionary	-4452
fortunately	-4453
ah	-4454
bbie	-4455
▁ribbon	-4456
▁immediately	-4457
▁helper	-4458
▁Fo	-4459
▁muffin	-4460
▁fest	-4461
▁growled	-4462
▁isn	-4463
▁begged	-4464
▁dictionary	-4465
▁shrink	-4466
▁matches	-4467
▁waste	-4468
▁blood	-4469
▁birdc	-4470
▁Snowy	-4471
▁prop	-4472
▁ideas	-4473
▁warmth	-4474
ib	-4475
▁mustache	-4476
▁sneeze	-4477
▁invite	-4478
▁People	-4479
hic	-4480
▁gear	-4481
▁birdcage	-4482
▁vehic	-4483
▁fuel	-4484
ups	-4485
▁alright	-4486
alend	-4487
▁Luck	-4488
▁rabbits	-4489
asis	-4490
▁calend	-4491
▁ignore	-4492
▁weep	-4493
▁yucky	-4494
▁flutter	-4495
▁instr	-4496
▁Luckily	-4497
▁fallen	-4498
▁married	-4499
▁berry	-4500
▁Each	-4501
lier	-4502
▁rail	-4503
▁row	-4504
▁pastry	-4505
▁refre	-4506
ucture	-4507
Did	-4508
▁worms	-4509
▁structure	-4510
▁laught	-4511
▁Liz	-4512
▁surprises	-4513
▁below	-4514
▁bravely	-4515
▁calendar	-4516
▁oasis	-4517
▁wandered	-4518
▁wigg	-4519
▁kneel	-4520
ising	-4521
▁dire	-4522
▁understanding	-4523
▁hurting	-4524
▁laughter	-4525
omeday	-4526
▁drain	-4527
▁pages	-4528
▁hearts	-4529
▁enter	-4530
Ok	-4531
▁Ollie	-4532
▁airpl	-4533
inky	-4534
▁item	-4535
omob	-4536
▁harb	-4537
▁reaches	-4538
▁apron	-4539
▁safety	-4540
▁float	-4541
Is	-4542
▁crash	-4543
▁automob	-4544
▁bathe	-4545
▁buried	-4546
œNo	-4547
▁junk	-4548
▁buckle	-4549
▁admir	-4550
▁root	-4551
▁captain	-4552
▁strawberries	-4553
achel	-4554
▁myself	-4555
▁relaxed	-4556
▁sandcastle	-4557
oral	-4558
▁skills	-4559
▁plates	-4560
Welcome	-4561
▁whip	-4562
▁Who	-4563
▁spade	-4564
▁moments	-4565
▁reverse	-4566
htray	-4567
▁Joy	-4568
▁Steve	-4569
icing	-4570
▁quiz	-4571
▁Rachel	-4572
▁ashtray	-4573
▁festival	-4574
▁Co	-4575
▁beamed	-4576
'.	-4577
▁snapped	-4578
riger	-4579
ores	-4580
▁someday	-4581
cakes	-4582
▁refriger	-4583
▁raise	-4584
▁Everyday	-4585
▁received	-4586
Yuck	-4587
▁refrigerator	-4588
▁earlier	-4589
▁tong	-4590
ari	-4591
▁lic	-4592
▁weap	-4593
▁vac	-4594
▁Betsy	-4595
▁teaching	-4596
▁mass	-4597
▁harbor	-4598
▁model	-4599
▁Its	-4600
▁sparkling	-4601
▁spots	-4602
aped	-4603
▁insisted	-4604
▁saving	-4605
▁vanished	-4606
▁socks	-4607
▁bumped	-4608
▁Buzz	-4609
▁thumb	-4610
anna	-4611
▁dried	-4612
▁supply	-4613
ission	-4614
▁Poppy	-4615
▁blackboard	-4616
igail	-4617
▁prepare	-4618
▁jail	-4619
▁jewels	-4620
▁Penny	-4621
▁spending	-4622
xy	-4623
▁balan	-4624
▁scattered	-4625
▁toes	-4626
▁scooped	-4627
▁settled	-4628
▁permission	-4629
▁sparkle	-4630
▁Frank	-4631
▁known	-4632
ctly	-4633
▁breathe	-4634
▁boot	-4635
nce	-4636
▁yawned	-4637
▁res	-4638
amber	-4639
▁achie	-4640
▁destroyed	-4641
▁bathrobe	-4642
▁Abigail	-4643
▁tease	-4644
▁remain	-4645
▁hardly	-4646
▁encouraged	-4647
▁replace	-4648
▁waffle	-4649
antly	-4650
▁pride	-4651
▁lemonade	-4652
▁dare	-4653
▁hanger	-4654
▁Have	-4655
▁sits	-4656
▁pulling	-4657
▁decorations	-4658
ops	-4659
sters	-4660
▁remove	-4661
▁cuddled	-4662
▁hate	-4663
▁Dav	-4664
▁daisy	-4665
▁license	-4666
uch	-4667
▁beans	-4668
▁simp	-4669
▁port	-4670
▁respons	-4671
▁praised	-4672
reat	-4673
▁chirping	-4674
▁hits	-4675
ents	-4676
asp	-4677
▁equ	-4678
▁fastest	-4679
▁suffer	-4680
xture	-4681
▁buzzing	-4682
▁patiently	-4683
▁dresses	-4684
▁mention	-4685
▁David	-4686
▁bleed	-4687
sity	-4688
▁rhy	-4689
▁automobile	-4690
nies	-4691
▁wiz	-4692
▁appreciate	-4693
▁poppy	-4694
▁destination	-4695
▁taller	-4696
▁mall	-4697
osed	-4698
▁homes	-4699
▁nation	-4700
ium	-4701
▁digg	-4702
▁flav	-4703
▁guy	-4704
▁climbs	-4705
▁washing	-4706
▁palm	-4707
▁glo	-4708
▁shot	-4709
▁label	-4710
▁digging	-4711
▁believed	-4712
▁approached	-4713
▁hesit	-4714
fied	-4715
▁none	-4716
▁tore	-4717
▁Mat	-4718
Mmm	-4719
▁deeper	-4720
▁wine	-4721
▁infant	-4722
ude	-4723
▁restore	-4724
▁score	-4725
▁hers	-4726
▁mitten	-4727
▁chamber	-4728
▁sausage	-4729
rm	-4730
▁struggling	-4731
▁heat	-4732
▁tongue	-4733
▁hills	-4734
▁hurric	-4735
▁punish	-4736
▁pillows	-4737
▁billboard	-4738
▁sneezed	-4739
▁sport	-4740
▁wizard	-4741
▁upstairs	-4742
▁thrilled	-4743
▁provide	-4744
▁brain	-4745
▁awe	-4746
▁discuss	-4747
▁panic	-4748
▁warning	-4749
▁twisted	-4750
▁glowed	-4751
▁universe	-4752
▁firef	-4753
▁therm	-4754
▁vacation	-4755
▁worse	-4756
▁crunch	-4757
▁poison	-4758
▁shed	-4759
▁solved	-4760
▁parts	-4761
osity	-4762
▁Spike	-4763
bey	-4764
▁event	-4765
▁setting	-4766
allen	-4767
▁tour	-4768
▁remained	-4769
▁airplane	-4770
▁hurricane	-4771
▁thermomet	-4772
▁plays	-4773
▁examine	-4774
▁sparkles	-4775
▁shooting	-4776
▁invit	-4777
▁neighborhood	-4778
▁sty	-4779
▁chores	-4780
▁oranges	-4781
▁floated	-4782
▁ranch	-4783
▁challen	-4784
thm	-4785
▁weeks	-4786
▁leak	-4787
▁university	-4788
ging	-4789
shing	-4790
▁paints	-4791
▁thermometer	-4792
▁bites	-4793
▁repeat	-4794
▁bang	-4795
adium	-4796
▁floating	-4797
▁fixing	-4798
▁measured	-4799
▁stadium	-4800
▁grinned	-4801
!'	-4802
These	-4803
!",	-4804
▁during	-4805
▁surrounded	-4806
▁supposed	-4807
aspoon	-4808
▁conf	-4809
nfortunately	-4810
▁rhythm	-4811
▁massage	-4812
▁brings	-4813
▁cherry	-4814
▁paused	-4815
▁gifts	-4816
▁fut	-4817
▁sprinkles	-4818
▁fasc	-4819
▁future	-4820
▁memory	-4821
œIâ	-4822
▁teaspoon	-4823
▁grey	-4824
rise	-4825
▁collection	-4826
▁signs	-4827
▁marbles	-4828
bbles	-4829
▁jazz	-4830
▁stomach	-4831
Would	-4832
emember	-4833
▁Good	-4834
do	-4835
▁gust	-4836
▁wisdom	-4837
▁actually	-4838
▁Cat	-4839
▁flood	-4840
▁discovery	-4841
▁includ	-4842
▁sew	-4843
▁vehicle	-4844
▁tide	-4845
▁lily	-4846
▁girls	-4847
▁sunrise	-4848
ishing	-4849
Sp	-4850
▁Beth	-4851
vet	-4852
œThatâ	-4853
▁meowed	-4854
ls	-4855
▁elephants	-4856
▁Chr	-4857
▁urge	-4858
▁exercise	-4859
▁mailman	-4860
umble	-4861
▁lugg	-4862
▁rush	-4863
▁decision	-4864
▁chewed	-4865
ero	-4866
▁weapon	-4867
▁strang	-4868
▁observe	-4869
▁luggage	-4870
▁unite	-4871
▁Ra	-4872
▁cartoons	-4873
▁sore	-4874
▁fascin	-4875
▁tomatoes	-4876
iers	-4877
▁scur	-4878
▁possible	-4879
▁toe	-4880
allow	-4881
cles	-4882
▁sunlight	-4883
▁Je	-4884
ities	-4885
▁folded	-4886
▁curled	-4887
▁chirped	-4888
▁rust	-4889
▁melted	-4890
▁spill	-4891
▁Jan	-4892
▁cakes	-4893
uing	-4894
▁sip	-4895
▁collecting	-4896
▁x	-4897
▁grape	-4898
son	-4899
▁Someone	-4900
▁mineral	-4901
▁difference	-4902
▁problems	-4903
▁bak	-4904
▁Jam	-4905
▁tracks	-4906
▁jogging	-4907
▁Remy	-4908
▁wherever	-4909
Sh	-4910
▁mountains	-4911
ipment	-4912
▁bes	-4913
▁Spark	-4914
Ready	-4915
▁sliding	-4916
▁manage	-4917
▁equipment	-4918
etch	-4919
▁laid	-4920
Not	-4921
▁lick	-4922
▁admiring	-4923
▁watered	-4924
cious	-4925
▁satis	-4926
▁contain	-4927
▁oper	-4928
▁bricks	-4929
▁Fro	-4930
oved	-4931
▁twigs	-4932
rr	-4933
▁patterns	-4934
▁kindly	-4935
▁petted	-4936
▁potatoes	-4937
▁skipping	-4938
▁seats	-4939
ncle	-4940
bers	-4941
▁soldiers	-4942
▁Nina	-4943
eed	-4944
▁gloves	-4945
▁spaces	-4946
zag	-4947
▁Sund	-4948
joyed	-4949
▁receive	-4950
▁keeper	-4951
▁copper	-4952
▁Luna	-4953
▁emer	-4954
▁slice	-4955
▁lets	-4956
▁Sunday	-4957
▁gain	-4958
▁continue	-4959
▁ordered	-4960
▁strangers	-4961
▁Thom	-4962
walk	-4963
▁overjoyed	-4964
▁watches	-4965
▁gotten	-4966
▁pigs	-4967
▁zipped	-4968
mother	-4969
▁lands	-4970
▁whistling	-4971
▁gaz	-4972
▁beside	-4973
œThank	-4974
▁safari	-4975
▁beg	-4976
▁prayed	-4977
▁Ad	-4978
▁peered	-4979
▁network	-4980
bbled	-4981
▁spit	-4982
▁eff	-4983
▁invitation	-4984
▁marching	-4985
▁Moral	-4986
▁ours	-4987
▁Not	-4988
ases	-4989
▁glitter	-4990
▁wooden	-4991
▁earthqu	-4992
▁Thomas	-4993
▁sidewalk	-4994
▁eagle	-4995
igzag	-4996
▁doggy	-4997
▁drinks	-4998
▁grocery	-4999
irp	-5000
▁weight	-5001
▁navy	-5002
▁acorns	-5003
▁attached	-5004
▁Julie	-5005
▁Josh	-5006
▁raised	-5007
▁disagreed	-5008
▁weren	-5009
Yum	-5010
▁Chl	-5011
▁Letâ	-5012
▁Suzy	-5013
▁beat	-5014
▁company	-5015
▁mister	-5016
▁burning	-5017
▁Sunny	-5018
fy	-5019
▁onwards	-5020
hest	-5021
",	-5022
▁wre	-5023
▁happiest	-5024
▁racing	-5025
▁brid	-5026
▁crashed	-5027
▁spoons	-5028
▁fed	-5029
▁Chloe	-5030
▁crunchy	-5031
▁Sharing	-5032
▁peanuts	-5033
▁whistled	-5034
▁price	-5035
▁Sure	-5036
seek	-5037
▁meow	-5038
▁hurried	-5039
▁hist	-5040
▁officer	-5041
Ouch	-5042
▁brick	-5043
▁accom	-5044
▁tremb	-5045
▁refreshed	-5046
▁pies	-5047
▁remem	-5048
▁flap	-5049
▁works	-5050
nie	-5051
▁clearing	-5052
▁operation	-5053
▁prepared	-5054
▁bowed	-5055
▁remembers	-5056
▁scratched	-5057
▁history	-5058
▁exa	-5059
Will	-5060
aded	-5061
▁lips	-5062
amb	-5063
▁prune	-5064
▁fireworks	-5065
œWe	-5066
Really	-5067
▁escaped	-5068
▁dinosaurs	-5069
▁menu	-5070
▁bridges	-5071
▁talent	-5072
▁planted	-5073
▁Am	-5074
▁Nut	-5075
▁buildings	-5076
▁revealed	-5077
▁easier	-5078
▁bye	-5079
▁turning	-5080
▁Pr	-5081
▁comfy	-5082
▁olive	-5083
▁screams	-5084
▁brand	-5085
▁hated	-5086
▁chat	-5087
▁selling	-5088
▁snowball	-5089
die	-5090
▁recognized	-5091
▁An	-5092
▁warn	-5093
▁accompl	-5094
▁crept	-5095
▁precious	-5096
▁landsc	-5097
▁Sadly	-5098
▁strip	-5099
▁padd	-5100
▁muddy	-5101
▁By	-5102
▁wid	-5103
▁drinking	-5104
▁Jamie	-5105
▁sings	-5106
xygen	-5107
▁beds	-5108
▁pupp	-5109
▁Chirp	-5110
ecture	-5111
▁settle	-5112
▁earthquake	-5113
▁simple	-5114
cc	-5115
▁effort	-5116
▁reminder	-5117
▁spaceship	-5118
▁measuring	-5119
▁slip	-5120
▁perched	-5121
▁lecture	-5122
▁bones	-5123
▁served	-5124
▁Cla	-5125
▁appear	-5126
▁wonders	-5127
▁shadows	-5128
▁waits	-5129
▁voices	-5130
œCan	-5131
▁Ol	-5132
▁cuddle	-5133
▁pedal	-5134
▁everyday	-5135
▁pitch	-5136
▁comforted	-5137
▁agreement	-5138
▁responsible	-5139
▁circus	-5140
▁rained	-5141
▁Lu	-5142
▁vel	-5143
▁obey	-5144
ffic	-5145
▁vict	-5146
▁tip	-5147
▁soared	-5148
▁allow	-5149
▁anytime	-5150
▁trapped	-5151
▁cal	-5152
▁whatever	-5153
▁zigzag	-5154
▁tastes	-5155
▁apologize	-5156
▁landscape	-5157
▁cutting	-5158
▁succeeded	-5159
▁shopping	-5160
▁Mad	-5161
▁pets	-5162
▁rang	-5163
▁secrets	-5164
▁villag	-5165
▁Pip	-5166
anny	-5167
▁velvet	-5168
▁printer	-5169
▁disturbed	-5170
▁waist	-5171
▁items	-5172
▁swims	-5173
▁bun	-5174
▁traffic	-5175
▁practicing	-5176
▁steel	-5177
▁oats	-5178
▁bringing	-5179
▁Anne	-5180
▁exactly	-5181
▁sisters	-5182
To	-5183
▁rested	-5184
▁visiting	-5185
▁Rob	-5186
▁Hanna	-5187
▁activ	-5188
▁costumes	-5189
▁scoop	-5190
▁answers	-5191
izing	-5192
▁olives	-5193
ien	-5194
mble	-5195
▁brushed	-5196
▁style	-5197
▁mouths	-5198
▁Big	-5199
▁soak	-5200
▁bene	-5201
▁curiosity	-5202
▁For	-5203
ishes	-5204
▁outdo	-5205
neath	-5206
▁breaking	-5207
▁fashion	-5208
▁rele	-5209
▁owned	-5210
▁ladyb	-5211
▁encourage	-5212
œDon	-5213
▁Coco	-5214
▁knelt	-5215
▁fascinated	-5216
▁leather	-5217
mare	-5218
iggy	-5219
▁image	-5220
▁Claire	-5221
▁villagers	-5222
oming	-5223
▁nails	-5224
▁beneath	-5225
icorn	-5226
▁underground	-5227
▁waffles	-5228
▁unicorn	-5229
▁sadness	-5230
▁Lucky	-5231
▁These	-5232
enty	-5233
▁Itâ	-5234
▁Floppy	-5235
terday	-5236
▁unlocked	-5237
inda	-5238
▁died	-5239
▁recognize	-5240
▁downstairs	-5241
▁creation	-5242
▁catching	-5243
▁grandmother	-5244
▁oxygen	-5245
isten	-5246
▁monsters	-5247
▁Gr	-5248
▁tremble	-5249
▁chef	-5250
▁eats	-5251
▁Nutty	-5252
▁pupil	-5253
ik	-5254
One	-5255
▁wanting	-5256
▁nightmare	-5257
▁jogged	-5258
▁cape	-5259
▁stripes	-5260
▁Rabbit	-5261
▁doctors	-5262
▁soaring	-5263
▁blueberry	-5264
ley	-5265
▁Something	-5266
▁Ow	-5267
Spot	-5268
▁lemons	-5269
▁struggled	-5270
▁Tiny	-5271
rs	-5272
▁bleeding	-5273
▁wondering	-5274
▁punished	-5275
▁Betty	-5276
▁gained	-5277
▁famil	-5278
ayla	-5279
▁Lul	-5280
▁Hop	-5281
▁fetch	-5282
▁examined	-5283
▁nicer	-5284
len	-5285
▁Jessie	-5286
▁guessed	-5287
▁planned	-5288
▁drag	-5289
▁caut	-5290
▁situ	-5291
▁machines	-5292
▁mission	-5293
▁stealing	-5294
▁argued	-5295
▁area	-5296
▁comple	-5297
▁piles	-5298
▁si	-5299
▁herbs	-5300
▁freeze	-5301
▁introduc	-5302
▁stirring	-5303
uack	-5304
▁Tilly	-5305
▁ripped	-5306
▁Car	-5307
▁six	-5308
▁Carl	-5309
▁challenge	-5310
▁Adam	-5311
▁tugged	-5312
▁studied	-5313
She	-5314
▁firemen	-5315
▁bend	-5316
▁bare	-5317
▁wagging	-5318
▁zooming	-5319
▁accidents	-5320
▁victory	-5321
▁satisfied	-5322
▁wreck	-5323
Daddy	-5324
▁Hannah	-5325
▁instruct	-5326
▁properly	-5327
▁keys	-5328
▁winning	-5329
▁shivering	-5330
looking	-5331
▁bunnies	-5332
▁increase	-5333
agull	-5334
ding	-5335
▁tune	-5336
▁gathering	-5337
▁mice	-5338
Or	-5339
▁exit	-5340
▁firefight	-5341
▁outdoors	-5342
▁Yes	-5343
▁winner	-5344
▁twirling	-5345
▁loaded	-5346
▁slapped	-5347
▁teasing	-5348
▁peel	-5349
▁decorated	-5350
xu	-5351
▁deser	-5352
▁supplies	-5353
▁Lulu	-5354
▁yelling	-5355
▁une	-5356
▁neighbourhood	-5357
▁seagull	-5358
▁underneath	-5359
▁permit	-5360
▁sights	-5361
▁tickets	-5362
▁Aunt	-5363
▁Matt	-5364
▁ann	-5365
▁Chirpy	-5366
▁pancakes	-5367
▁begin	-5368
▁burrow	-5369
▁pearl	-5370
▁Abby	-5371
▁rides	-5372
▁siren	-5373
▁peaches	-5374
▁Sl	-5375
▁mixing	-5376
▁Susan	-5377
▁released	-5378
▁draws	-5379
▁weighed	-5380
aky	-5381
▁sneaked	-5382
▁Bubbles	-5383
ica	-5384
uxu	-5385
Mama	-5386
indy	-5387
.'	-5388
▁confident	-5389
▁realize	-5390
▁instructions	-5391
ales	-5392
▁spiders	-5393
▁introduce	-5394
▁luxu	-5395
▁dam	-5396
▁muffins	-5397
▁contro	-5398
▁letâ	-5399
▁pinched	-5400
▁budge	-5401
▁solut	-5402
▁zero	-5403
▁competition	-5404
▁printed	-5405
▁studying	-5406
▁Out	-5407
▁Did	-5408
▁loving	-5409
▁beha	-5410
▁inch	-5411
▁pockets	-5412
▁baked	-5413
▁struck	-5414
œLook	-5415
▁shoulders	-5416
▁bunch	-5417
▁opin	-5418
▁Like	-5419
▁lines	-5420
▁frosting	-5421
▁release	-5422
Goodbye	-5423
▁decides	-5424
▁giggling	-5425
▁broom	-5426
▁ourselves	-5427
▁web	-5428
▁pastel	-5429
Happy	-5430
▁stamps	-5431
▁travell	-5432
▁cones	-5433
▁Mir	-5434
nes	-5435
▁emergen	-5436
œHello	-5437
▁stair	-5438
▁stitch	-5439
bbing	-5440
▁Stop	-5441
▁prunes	-5442
▁Mart	-5443
▁ladybug	-5444
▁sides	-5445
ena	-5446
oed	-5447
▁grant	-5448
▁scurried	-5449
▁strings	-5450
▁tim	-5451
ais	-5452
▁marks	-5453
▁ruler	-5454
▁pears	-5455
gers	-5456
▁Wed	-5457
nesday	-5458
▁repeated	-5459
▁drift	-5460
▁keeps	-5461
▁ago	-5462
▁claps	-5463
Ex	-5464
▁poking	-5465
▁Wednesday	-5466
eep	-5467
anta	-5468
œThis	-5469
Ye	-5470
ays	-5471
▁crowd	-5472
▁Bir	-5473
▁ruin	-5474
▁Lou	-5475
▁prints	-5476
kins	-5477
▁brushes	-5478
▁kicking	-5479
▁stretching	-5480
▁demanded	-5481
▁sting	-5482
▁neighbors	-5483
▁mentioned	-5484
owers	-5485
▁mast	-5486
▁touching	-5487
▁tonight	-5488
▁protected	-5489
▁writes	-5490
▁sweeties	-5491
xp	-5492
▁Linda	-5493
▁Ju	-5494
▁goodnight	-5495
Joh	-5496
uesday	-5497
▁Luke	-5498
▁youth	-5499
▁buckets	-5500
▁ribbons	-5501
▁Jeff	-5502
▁Santa	-5503
va	-5504
jam	-5505
uctantly	-5506
tiest	-5507
▁Tuesday	-5508
bies	-5509
ashed	-5510
▁prettiest	-5511
ody	-5512
▁forgi	-5513
▁vent	-5514
▁parked	-5515
icky	-5516
▁project	-5517
▁camping	-5518
▁soaked	-5519
zie	-5520
▁barely	-5521
▁horns	-5522
▁bouncy	-5523
icked	-5524
▁Both	-5525
riage	-5526
hins	-5527
▁discovering	-5528
œDonâ	-5529
▁east	-5530
▁Momo	-5531
▁twinkling	-5532
▁result	-5533
▁expect	-5534
▁surface	-5535
▁sorting	-5536
▁dent	-5537
▁stole	-5538
œWhy	-5539
▁west	-5540
▁interest	-5541
▁vowed	-5542
▁texture	-5543
▁gazed	-5544
Ah	-5545
▁purred	-5546
▁guys	-5547
▁steep	-5548
▁babies	-5549
▁Afterwards	-5550
▁shock	-5551
▁beard	-5552
▁movies	-5553
▁cautious	-5554
xpected	-5555
zen	-5556
▁powers	-5557
▁applauded	-5558
▁silence	-5559
▁Hoppy	-5560
thank	-5561
▁pebbles	-5562
▁entire	-5563
▁loose	-5564
▁control	-5565
▁tickle	-5566
▁guns	-5567
▁urged	-5568
▁dragons	-5569
▁acted	-5570
▁dragged	-5571
▁luxury	-5572
▁unexpected	-5573
▁catches	-5574
edding	-5575
ason	-5576
ern	-5577
▁mittens	-5578
▁muscles	-5579
▁Lizzy	-5580
▁chewing	-5581
▁rocking	-5582
▁flat	-5583
▁fab	-5584
▁fabric	-5585
▁dolphins	-5586
▁completed	-5587
▁curtains	-5588
▁emergency	-5589
▁blink	-5590
Mia	-5591
▁introduced	-5592
une	-5593
▁Jenna	-5594
▁direction	-5595
▁chips	-5596
▁honk	-5597
▁Cindy	-5598
▁season	-5599
▁strike	-5600
▁patience	-5601
▁importance	-5602
▁Ha	-5603
eezing	-5604
▁Suzie	-5605
▁reluctantly	-5606
▁bank	-5607
▁eight	-5608
▁slim	-5609
usted	-5610
▁figured	-5611
▁highest	-5612
▁shivered	-5613
▁frozen	-5614
▁solution	-5615
▁librarian	-5616
▁contest	-5617
▁rocked	-5618
▁achieve	-5619
▁screaming	-5620
▁chases	-5621
Mum	-5622
▁replac	-5623
▁pouring	-5624
▁shelves	-5625
▁wound	-5626
▁theirs	-5627
▁crumb	-5628
▁rubbing	-5629
esome	-5630
▁ti	-5631
▁drives	-5632
▁hugging	-5633
▁staring	-5634
▁sorted	-5635
▁snail	-5636
Remember	-5637
▁roaring	-5638
John	-5639
œOh	-5640
▁Lena	-5641
ledge	-5642
▁include	-5643
▁planets	-5644
Somet	-5645
▁Jac	-5646
ateri	-5647
▁materi	-5648
▁safer	-5649
▁policeman	-5650
▁Dolly	-5651
fit	-5652
▁curly	-5653
▁situation	-5654
▁foods	-5655
▁greet	-5656
▁awesome	-5657
▁canâ	-5658
▁usual	-5659
vin	-5660
▁sighs	-5661
▁knowledge	-5662
itely	-5663
irts	-5664
Mummy	-5665
▁passing	-5666
▁shined	-5667
Al	-5668
▁Jon	-5669
▁flags	-5670
▁exha	-5671
▁dared	-5672
▁balancing	-5673
▁plenty	-5674
▁tru	-5675
▁youâ	-5676
▁matched	-5677
▁towels	-5678
▁lied	-5679
ults	-5680
▁homework	-5681
though	-5682
▁outfit	-5683
▁slimy	-5684
▁bravery	-5685
Gra	-5686
▁truly	-5687
▁pretends	-5688
▁zookeeper	-5689
avi	-5690
▁cheering	-5691
▁heel	-5692
▁wedding	-5693
▁goals	-5694
▁rainbows	-5695
jamas	-5696
▁sausages	-5697
cuse	-5698
▁threat	-5699
▁accomplish	-5700
▁patted	-5701
▁caused	-5702
▁paintings	-5703
Just	-5704
▁Slow	-5705
▁reaching	-5706
▁Tara	-5707
▁Mira	-5708
▁resting	-5709
▁Pinky	-5710
▁Always	-5711
▁Jacob	-5712
▁radishes	-5713
▁arguing	-5714
▁Mon	-5715
▁Mil	-5716
▁packing	-5717
Excuse	-5718
...	-5719
bert	-5720
▁growling	-5721
▁blooming	-5722
▁spraying	-5723
▁ge	-5724
▁waiter	-5725
▁exhausted	-5726
iar	-5727
▁Two	-5728
▁struggle	-5729
izzie	-5730
▁sweets	-5731
▁sticking	-5732
uick	-5733
ences	-5734
▁pout	-5735
▁markers	-5736
▁motion	-5737
▁worker	-5738
▁kneeled	-5739
▁paddled	-5740
▁growl	-5741
▁sled	-5742
▁Mick	-5743
immer	-5744
▁suitc	-5745
▁Ex	-5746
▁mane	-5747
▁sway	-5748
▁snugg	-5749
▁startled	-5750
▁cubes	-5751
▁rescued	-5752
▁boo	-5753
▁spike	-5754
▁written	-5755
▁dusty	-5756
▁Lizzie	-5757
▁traveled	-5758
▁inviting	-5759
hello	-5760
▁expected	-5761
▁bead	-5762
▁slap	-5763
▁cuts	-5764
▁cent	-5765
▁Jessica	-5766
▁bottles	-5767
▁matching	-5768
▁guest	-5769
▁flavor	-5770
▁singer	-5771
▁reveal	-5772
▁learns	-5773
▁heav	-5774
lee	-5775
▁princesses	-5776
▁Julia	-5777
▁creating	-5778
▁regretted	-5779
▁fart	-5780
Yeah	-5781
▁bloomed	-5782
▁trembling	-5783
▁replaced	-5784
▁fir	-5785
▁arrive	-5786
▁marriage	-5787
you	-5788
pite	-5789
aisies	-5790
▁recorded	-5791
▁pencils	-5792
▁included	-5793
▁lap	-5794
▁chuck	-5795
▁disagree	-5796
▁observed	-5797
njoy	-5798
▁Pipp	-5799
▁pots	-5800
▁daisies	-5801
▁activities	-5802
When	-5803
▁prayer	-5804
▁firm	-5805
▁timer	-5806
▁Mo	-5807
▁pajamas	-5808
▁roads	-5809
▁wires	-5810
▁removed	-5811
▁darkness	-5812
▁uses	-5813
▁worries	-5814
▁ventured	-5815
▁countryside	-5816
▁organizing	-5817
▁stare	-5818
▁completely	-5819
▁workers	-5820
▁opening	-5821
▁fairies	-5822
▁relief	-5823
angled	-5824
▁wasted	-5825
▁leap	-5826
▁reply	-5827
▁owners	-5828
▁storekeeper	-5829
▁cott	-5830
▁belly	-5831
vers	-5832
▁ranger	-5833
▁fault	-5834
▁Johnson	-5835
aty	-5836
▁Fox	-5837
▁partic	-5838
▁Mel	-5839
▁unf	-5840
▁quacked	-5841
▁polishing	-5842
▁leader	-5843
▁stern	-5844
ora	-5845
iding	-5846
▁Friend	-5847
▁becoming	-5848
▁flames	-5849
▁lamb	-5850
▁Slowly	-5851
▁kites	-5852
ctions	-5853
▁agrees	-5854
▁poems	-5855
▁Christ	-5856
▁penguins	-5857
▁wasnâ	-5858
▁Nan	-5859
▁faced	-5860
▁seesaw	-5861
▁everybody	-5862
▁Y	-5863
Sometimes	-5864
▁folding	-5865
▁melting	-5866
▁scales	-5867
▁squealed	-5868
▁thro	-5869
▁healed	-5870
▁vanish	-5871
▁helmets	-5872
▁Jones	-5873
▁Larry	-5874
▁wink	-5875
▁logs	-5876
ords	-5877
▁crabs	-5878
▁throat	-5879
hell	-5880
▁Leave	-5881
▁opinion	-5882
▁usually	-5883
▁crumbs	-5884
▁tractor	-5885
▁ripe	-5886
opes	-5887
▁dipped	-5888
lings	-5889
▁Follow	-5890
▁scra	-5891
▁seems	-5892
▁ast	-5893
▁twinkle	-5894
▁lollipops	-5895
▁cash	-5896
▁risk	-5897
▁Bye	-5898
▁teaches	-5899
▁comm	-5900
▁groceries	-5901
▁den	-5902
▁knights	-5903
ivery	-5904
asm	-5905
▁dentist	-5906
▁provided	-5907
▁valued	-5908
▁polished	-5909
▁staying	-5910
ids	-5911
elle	-5912
▁peeking	-5913
aze	-5914
Jack	-5915
▁snakes	-5916
▁scru	-5917
▁interested	-5918
▁Watch	-5919
▁blows	-5920
▁rubs	-5921
▁cautiously	-5922
▁Put	-5923
▁cracked	-5924
▁rings	-5925
▁united	-5926
araway	-5927
▁Lau	-5928
▁faraway	-5929
▁desert	-5930
▁Sorry	-5931
▁misses	-5932
▁winked	-5933
▁protecting	-5934
▁freed	-5935
▁marked	-5936
▁Sophia	-5937
▁Bird	-5938
▁younger	-5939
▁Many	-5940
▁wrist	-5941
▁closes	-5942
▁wandering	-5943
mas	-5944
▁balanced	-5945
▁chuckled	-5946
▁fuzzy	-5947
▁listens	-5948
▁forehead	-5949
▁pastries	-5950
▁single	-5951
▁signed	-5952
go	-5953
▁robb	-5954
▁June	-5955
▁beads	-5956
▁particular	-5957
▁Doggy	-5958
▁roses	-5959
boo	-5960
▁boom	-5961
▁actions	-5962
▁directions	-5963
▁however	-5964
œMommy	-5965
▁copy	-5966
igi	-5967
▁cough	-5968
▁splashes	-5969
▁Bess	-5970
rance	-5971
▁crackers	-5972
▁El	-5973
▁baker	-5974
▁naps	-5975
▁cous	-5976
▁Happy	-5977
ppers	-5978
▁roots	-5979
▁Prin	-5980
▁Without	-5981
▁filling	-5982
hile	-5983
▁yesterday	-5984
▁snowballs	-5985
œWhatâ	-5986
▁restored	-5987
▁fluttered	-5988
▁rolls	-5989
▁delivery	-5990
abel	-5991
arling	-5992
▁conn	-5993
▁stem	-5994
▁swooped	-5995
dies	-5996
▁gaze	-5997
▁suitcase	-5998
▁Abbie	-5999
▁wiggled	-6000
▁tipt	-6001
▁somebody	-6002
▁Christmas	-6003
▁Laura	-6004
Bad	-6005
▁bumpy	-6006
▁itchy	-6007
bbly	-6008
▁refle	-6009
▁Everybody	-6010
Tommy	-6011
▁slam	-6012
▁swirl	-6013
▁photos	-6014
▁Gigi	-6015
▁Pam	-6016
oline	-6017
▁stroll	-6018
▁twin	-6019
▁pastels	-6020
▁celebration	-6021
▁trips	-6022
▁pedals	-6023
Then	-6024
▁backed	-6025
▁tallest	-6026
▁Mickey	-6027
▁Nothing	-6028
▁awake	-6029
▁froze	-6030
▁cause	-6031
▁cashier	-6032
ddled	-6033
▁nect	-6034
▁remote	-6035
▁lined	-6036
▁darker	-6037
▁nectar	-6038
▁determination	-6039
▁Nick	-6040
ility	-6041
▁speaking	-6042
▁Sparky	-6043
▁secure	-6044
ormed	-6045
▁knees	-6046
▁wow	-6047
anes	-6048
▁piggy	-6049
▁Sque	-6050
▁complaining	-6051
▁bars	-6052
▁Being	-6053
▁recording	-6054
▁sneaky	-6055
▁Jazz	-6056
▁Pandy	-6057
▁silent	-6058
▁videos	-6059
oys	-6060
▁health	-6061
▁accomplishment	-6062
Run	-6063
▁liqu	-6064
▁pleasure	-6065
▁acting	-6066
?",	-6067
▁Exc	-6068
▁entrance	-6069
▁ty	-6070
atches	-6071
▁wears	-6072
▁rockets	-6073
▁Ma	-6074
▁delivered	-6075
▁miles	-6076
▁glee	-6077
▁insp	-6078
▁hi	-6079
esmer	-6080
▁coloured	-6081
▁opp	-6082
▁Emmy	-6083
▁Enjoy	-6084
▁tricked	-6085
▁mesmer	-6086
sequ	-6087
boat	-6088
▁cheeks	-6089
yond	-6090
▁aff	-6091
▁beyond	-6092
▁afterwards	-6093
▁noon	-6094
▁sib	-6095
▁consequ	-6096
▁stays	-6097
▁hissed	-6098
▁insects	-6099
▁Stella	-6100
▁glasses	-6101
ky	-6102
▁bowls	-6103
umm	-6104
▁joking	-6105
▁Excited	-6106
▁sobbed	-6107
▁farther	-6108
▁tickled	-6109
▁Mikey	-6110
▁burst	-6111
▁colored	-6112
affes	-6113
▁scaring	-6114
▁Days	-6115
▁Buzzy	-6116
▁stolen	-6117
Fine	-6118
▁Bee	-6119
▁attack	-6120
▁sense	-6121
▁sandcastles	-6122
▁tricky	-6123
▁rule	-6124
▁Milo	-6125
▁masks	-6126
▁covers	-6127
iki	-6128
▁deal	-6129
▁instrum	-6130
▁giraffes	-6131
œCome	-6132
▁calmed	-6133
▁Jay	-6134
▁handful	-6135
?'	-6136
▁Squ	-6137
▁talented	-6138
arter	-6139
▁pause	-6140
▁indeed	-6141
▁tangled	-6142
▁adding	-6143
▁smarter	-6144
▁candies	-6145
▁scarves	-6146
ths	-6147
▁lung	-6148
▁shirts	-6149
▁achieved	-6150
▁choices	-6151
▁Robert	-6152
▁Princess	-6153
▁consequences	-6154
▁liquid	-6155
ossible	-6156
▁Chris	-6157
▁yourselves	-6158
rious	-6159
▁bumps	-6160
▁behavi	-6161
▁leading	-6162
weet	-6163
▁Maya	-6164
▁Robbie	-6165
▁Els	-6166
▁reads	-6167
▁batteries	-6168
choo	-6169
igers	-6170
▁hesitated	-6171
▁impossible	-6172
▁badge	-6173
ept	-6174
▁mi	-6175
aren	-6176
▁paddle	-6177
▁mixture	-6178
▁Get	-6179
▁explorers	-6180
iled	-6181
▁darling	-6182
▁magnets	-6183
▁Tess	-6184
▁Olive	-6185
ouch	-6186
▁Ry	-6187
▁clowns	-6188
▁kicks	-6189
▁Robby	-6190
Shh	-6191
▁recommended	-6192
▁Snugg	-6193
▁weeping	-6194
▁gracefully	-6195
ners	-6196
▁experien	-6197
▁seashell	-6198
▁seeker	-6199
▁bakery	-6200
Ro	-6201
▁firefighters	-6202
anging	-6203
▁salty	-6204
vest	-6205
brush	-6206
▁improved	-6207
▁swept	-6208
▁Martha	-6209
rig	-6210
atul	-6211
coat	-6212
▁deserve	-6213
▁stroked	-6214
▁wipes	-6215
▁flapping	-6216
▁beginning	-6217
▁mushrooms	-6218
▁complained	-6219
Whe	-6220
urry	-6221
Those	-6222
▁Pl	-6223
▁Po	-6224
▁hider	-6225
obody	-6226
itches	-6227
▁Granny	-6228
▁steer	-6229
▁knocks	-6230
▁cust	-6231
▁cans	-6232
▁seven	-6233
▁thorn	-6234
▁teased	-6235
▁Snuggles	-6236
▁objects	-6237
▁parties	-6238
œDo	-6239
▁travelled	-6240
▁Cu	-6241
▁third	-6242
▁hearing	-6243
▁basement	-6244
▁tigers	-6245
▁cupcakes	-6246
▁horiz	-6247
▁click	-6248
œYouâ	-6249
▁Dr	-6250
▁Sc	-6251
▁Rock	-6252
▁fever	-6253
▁snuck	-6254
▁heading	-6255
no	-6256
tle	-6257
▁Ryan	-6258
▁seconds	-6259
▁dots	-6260
▁raincoat	-6261
▁Abi	-6262
▁horizon	-6263
▁siblings	-6264
elia	-6265
▁custom	-6266
▁smiley	-6267
▁performance	-6268
▁Mabel	-6269
▁artist	-6270
▁hallway	-6271
▁beam	-6272
▁marker	-6273
▁snatched	-6274
▁Che	-6275
▁Thanks	-6276
▁lighter	-6277
▁yells	-6278
▁jackets	-6279
▁drums	-6280
▁fluttering	-6281
indr	-6282
œHi	-6283
step	-6284
ans	-6285
pare	-6286
▁ruining	-6287
▁gems	-6288
▁bedtime	-6289
Next	-6290
igning	-6291
▁Jacky	-6292
▁Water	-6293
▁wouldnâ	-6294
iles	-6295
▁raindr	-6296
▁wee	-6297
▁neither	-6298
▁concer	-6299
▁buying	-6300
▁Along	-6301
rigued	-6302
▁puppies	-6303
▁lett	-6304
▁paying	-6305
▁scrubbed	-6306
▁families	-6307
▁celebrating	-6308
▁Finn	-6309
▁dollhouse	-6310
▁annoy	-6311
œWow	-6312
▁Janie	-6313
▁creamy	-6314
▁lettuce	-6315
band	-6316
▁among	-6317
umbling	-6318
▁peacefully	-6319
▁Sim	-6320
▁rivers	-6321
▁scratches	-6322
▁wrapping	-6323
river	-6324
▁drifted	-6325
▁widened	-6326
▁rumble	-6327
▁tasks	-6328
atur	-6329
ivity	-6330
ades	-6331
▁treehouse	-6332
▁hides	-6333
▁wins	-6334
▁repa	-6335
▁behaved	-6336
cers	-6337
▁rusty	-6338
alph	-6339
▁wonâ	-6340
▁players	-6341
▁lun	-6342
uzz	-6343
▁cuddly	-6344
immering	-6345
ael	-6346
fall	-6347
▁uns	-6348
▁fact	-6349
Ch	-6350
ounce	-6351
▁arrows	-6352
▁rewarded	-6353
▁willing	-6354
▁lower	-6355
▁needles	-6356
▁source	-6357
▁shrinking	-6358
▁creativity	-6359
▁Rover	-6360
▁cor	-6361
▁losing	-6362
▁temper	-6363
▁ech	-6364
▁repaired	-6365
▁passen	-6366
▁fears	-6367
iece	-6368
▁grandpare	-6369
▁including	-6370
▁Binky	-6371
▁choo	-6372
▁Ralph	-6373
▁tiptoed	-6374
▁Gina	-6375
itched	-6376
▁creations	-6377
▁Jackie	-6378
▁tapped	-6379
▁Goodbye	-6380
▁grassy	-6381
▁chefs	-6382
ongr	-6383
▁def	-6384
ded	-6385
▁minerals	-6386
▁separated	-6387
▁Maddie	-6388
▁sprinkled	-6389
jo	-6390
▁rising	-6391
▁imagining	-6392
oey	-6393
▁granted	-6394
ichael	-6395
▁Sadie	-6396
▁chop	-6397
▁aud	-6398
▁gross	-6399
▁tempt	-6400
▁During	-6401
▁aren	-6402
▁swimsuit	-6403
ongratul	-6404
Great	-6405
▁pans	-6406
▁tiss	-6407
▁Remember	-6408
▁limes	-6409
cus	-6410
hog	-6411
▁stomped	-6412
▁screwd	-6413
▁Michael	-6414
▁coup	-6415
▁Nobody	-6416
▁grabbing	-6417
▁Judy	-6418
▁pouted	-6419
▁backwards	-6420
▁spong	-6421
itude	-6422
▁decorating	-6423
œMy	-6424
▁damage	-6425
ishy	-6426
▁hesitant	-6427
▁earn	-6428
▁printing	-6429
▁peppers	-6430
▁stung	-6431
▁squares	-6432
▁unpacked	-6433
Have	-6434
ments	-6435
▁tramp	-6436
cl	-6437
ntil	-6438
▁slower	-6439
▁cowb	-6440
▁diving	-6441
▁planning	-6442
Time	-6443
▁beloved	-6444
▁onions	-6445
▁Simon	-6446
pr	-6447
▁Marie	-6448
▁materials	-6449
▁heavier	-6450
▁Cra	-6451
▁chip	-6452
▁growls	-6453
▁raindrops	-6454
▁wrink	-6455
▁mer	-6456
▁pointy	-6457
▁Squeaky	-6458
▁Bluey	-6459
▁snowmen	-6460
▁Flop	-6461
cope	-6462
▁surroundings	-6463
▁promises	-6464
▁avoid	-6465
▁screwdriver	-6466
▁Todd	-6467
▁Since	-6468
▁recipe	-6469
▁audience	-6470
▁cousin	-6471
▁sailboat	-6472
Meow	-6473
▁Far	-6474
▁forgiven	-6475
▁rustling	-6476
▁neighbours	-6477
▁blocking	-6478
▁hus	-6479
▁center	-6480
Yummy	-6481
kend	-6482
▁slices	-6483
▁gobbled	-6484
Today	-6485
▁wiping	-6486
▁weekend	-6487
▁temperature	-6488
eds	-6489
▁touc	-6490
▁hedgehog	-6491
▁trampoline	-6492
ueen	-6493
▁Earth	-6494
▁refu	-6495
▁arr	-6496
▁helpers	-6497
ably	-6498
▁Lia	-6499
▁wobbled	-6500
▁rip	-6501
▁windy	-6502
▁couple	-6503
yes	-6504
▁stool	-6505
▁discussed	-6506
sty	-6507
▁designed	-6508
▁ornaments	-6509
▁dreamt	-6510
Oops	-6511
itted	-6512
▁noses	-6513
▁corners	-6514
child	-6515
▁pecked	-6516
▁slammed	-6517
Lila	-6518
int	-6519
unched	-6520
▁swans	-6521
▁afford	-6522
iley	-6523
Ew	-6524
▁feast	-6525
▁sports	-6526
▁hitting	-6527
Roar	-6528
▁age	-6529
▁streets	-6530
▁wag	-6531
▁tissue	-6532
▁dads	-6533
▁ache	-6534
▁aside	-6535
ccoon	-6536
▁sponge	-6537
▁raccoon	-6538
▁stain	-6539
▁requested	-6540
▁Back	-6541
▁meals	-6542
Le	-6543
▁forks	-6544
▁curiously	-6545
▁reflection	-6546
▁sunflowers	-6547
▁snowfl	-6548
▁warnings	-6549
▁tails	-6550
arrow	-6551
Rex	-6552
▁dances	-6553
▁prett	-6554
▁plans	-6555
▁bows	-6556
ido	-6557
▁vanilla	-6558
cky	-6559
▁shaped	-6560
▁familiar	-6561
▁sparks	-6562
▁Although	-6563
▁det	-6564
▁gri	-6565
▁leaning	-6566
▁dollars	-6567
▁Those	-6568
▁coloring	-6569
▁remembering	-6570
▁adult	-6571
▁Ash	-6572
▁breathed	-6573
▁greeted	-6574
▁intrigued	-6575
▁sale	-6576
▁screws	-6577
▁grandchild	-6578
ition	-6579
▁duckling	-6580
▁forgets	-6581
▁spreading	-6582
osen	-6583
▁gasp	-6584
▁astron	-6585
▁chosen	-6586
▁shops	-6587
▁thrown	-6588
▁Amelia	-6589
▁prettier	-6590
▁twice	-6591
▁praying	-6592
▁Hoot	-6593
▁tunnels	-6594
aker	-6595
▁hour	-6596
▁potion	-6597
▁enthusi	-6598
Grandma	-6599
▁touches	-6600
▁astronaut	-6601
--	-6602
▁swords	-6603
▁enthusiasm	-6604
▁husband	-6605
arac	-6606
▁Our	-6607
ertain	-6608
▁sailors	-6609
▁gardener	-6610
otten	-6611
endy	-6612
▁moo	-6613
▁hops	-6614
▁zipping	-6615
▁spikes	-6616
▁corre	-6617
▁superheroes	-6618
▁reason	-6619
▁Fu	-6620
▁wishing	-6621
▁magician	-6622
▁daring	-6623
▁spoonful	-6624
▁grandparents	-6625
arshm	-6626
▁least	-6627
shions	-6628
arshmallow	-6629
▁skunk	-6630
▁reass	-6631
▁Fido	-6632
▁Friends	-6633
▁changing	-6634
▁dod	-6635
▁borrowed	-6636
▁Meg	-6637
▁todd	-6638
▁scamp	-6639
▁counts	-6640
▁pens	-6641
▁flight	-6642
▁forgetting	-6643
▁rotten	-6644
▁bodies	-6645
▁encourag	-6646
▁Li	-6647
▁Davey	-6648
▁guests	-6649
▁flavors	-6650
Woof	-6651
▁hopeful	-6652
ently	-6653
▁Momma	-6654
▁neare	-6655
▁Star	-6656
▁woof	-6657
ounced	-6658
▁snuggle	-6659
▁mesmerized	-6660
▁sending	-6661
fly	-6662
▁heroes	-6663
aracter	-6664
▁character	-6665
▁muscle	-6666
stick	-6667
▁Sun	-6668
▁buzzed	-6669
▁seaw	-6670
▁neatly	-6671
▁grows	-6672
wk	-6673
▁Wendy	-6674
▁wraps	-6675
▁Listen	-6676
▁steady	-6677
Whee	-6678
▁poss	-6679
▁nibb	-6680
▁feeding	-6681
oni	-6682
▁marshmallow	-6683
▁handsome	-6684
▁cond	-6685
Our	-6686
▁mints	-6687
irrel	-6688
▁delivering	-6689
▁nine	-6690
▁oh	-6691
antha	-6692
llen	-6693
▁dived	-6694
▁Ali	-6695
bba	-6696
▁politely	-6697
▁zebras	-6698
▁onward	-6699
▁alien	-6700
▁suffering	-6701
▁Frog	-6702
▁napkins	-6703
the	-6704
▁warmer	-6705
Boo	-6706
years	-6707
▁Sof	-6708
▁sneezing	-6709
▁baths	-6710
▁honked	-6711
▁Samantha	-6712
▁defe	-6713
▁plain	-6714
▁plucked	-6715
▁crashing	-6716
▁Maddy	-6717
▁matters	-6718
▁embarrass	-6719
▁poster	-6720
ection	-6721
▁thatâ	-6722
meal	-6723
▁lifts	-6724
▁Holly	-6725
▁refreshing	-6726
œMom	-6727
▁unsure	-6728
▁seaweed	-6729
▁Birthday	-6730
▁lungs	-6731
▁Ruth	-6732
▁Farmer	-6733
▁students	-6734
▁increased	-6735
▁crew	-6736
▁stands	-6737
▁joining	-6738
▁toddler	-6739
▁oatmeal	-6740
Some	-6741
▁scen	-6742
allowed	-6743
▁proper	-6744
▁preparing	-6745
▁swallowed	-6746
▁Des	-6747
▁dip	-6748
▁thud	-6749
▁glued	-6750
œBut	-6751
▁express	-6752
▁focu	-6753
▁Frosty	-6754
▁Bessie	-6755
▁whispers	-6756
▁respond	-6757
aster	-6758
▁watering	-6759
▁amount	-6760
▁Baa	-6761
▁die	-6762
▁ropes	-6763
▁toaster	-6764
▁performed	-6765
▁starfish	-6766
▁leads	-6767
▁trembled	-6768
▁presses	-6769
▁wobbly	-6770
▁triangles	-6771
▁hawk	-6772
▁lessons	-6773
▁cushions	-6774
▁biting	-6775
▁postman	-6776
▁Thatâ	-6777
▁geese	-6778
while	-6779
▁cau	-6780
œWell	-6781
▁Patch	-6782
▁pops	-6783
▁dancers	-6784
▁puff	-6785
▁talks	-6786
▁sniffs	-6787
▁focused	-6788
▁scraped	-6789
▁resisted	-6790
▁Love	-6791
▁merry	-6792
▁bully	-6793
▁adults	-6794
▁panicked	-6795
▁Mouse	-6796
▁confl	-6797
▁rushing	-6798
▁necklaces	-6799
▁freedom	-6800
vant	-6801
▁flas	-6802
▁puppet	-6803
▁Squirrel	-6804
▁slips	-6805
▁softer	-6806
▁Bubba	-6807
▁firmly	-6808
▁waddled	-6809
▁trot	-6810
iona	-6811
ados	-6812
▁Megan	-6813
▁joyful	-6814
▁firefly	-6815
▁encouraging	-6816
▁tested	-6817
▁wrigg	-6818
▁dropping	-6819
œWhere	-6820
▁drawers	-6821
eal	-6822
▁frowning	-6823
▁tables	-6824
onna	-6825
▁waterfall	-6826
▁worn	-6827
▁wiggle	-6828
Bun	-6829
Lucy	-6830
▁ev	-6831
ippy	-6832
▁Mean	-6833
▁Ray	-6834
▁blast	-6835
▁nervously	-6836
▁Mina	-6837
▁faded	-6838
rey	-6839
▁lifting	-6840
bird	-6841
▁Only	-6842
▁scampered	-6843
▁rout	-6844
▁humans	-6845
▁drivers	-6846
lets	-6847
▁spat	-6848
▁explo	-6849
cake	-6850
▁Ang	-6851
▁appreciation	-6852
▁Honey	-6853
▁pours	-6854
▁robber	-6855
▁Freddie	-6856
▁firefighter	-6857
▁drawn	-6858
▁squeak	-6859
▁Stay	-6860
▁pennies	-6861
▁thoughts	-6862
▁respected	-6863
▁quarreling	-6864
▁Sofia	-6865
▁Flopsy	-6866
▁pigeons	-6867
▁twinkled	-6868
▁throughout	-6869
▁leapt	-6870
retty	-6871
▁occ	-6872
▁Tuna	-6873
▁Fiona	-6874
▁stacked	-6875
▁Fuzzy	-6876
▁dresser	-6877
▁Fe	-6878
Fo	-6879
rrr	-6880
▁fits	-6881
▁scient	-6882
▁coc	-6883
but	-6884
▁master	-6885
▁scientist	-6886
Bob	-6887
roken	-6888
▁Meanwhile	-6889
▁Eva	-6890
▁Ph	-6891
▁bravest	-6892
▁avocados	-6893
▁months	-6894
▁overcome	-6895
▁strongest	-6896
▁elf	-6897
ushed	-6898
▁polar	-6899
ears	-6900
▁playtime	-6901
▁san	-6902
▁notes	-6903
Listen	-6904
▁gonna	-6905
fire	-6906
▁nur	-6907
▁Take	-6908
▁Spl	-6909
▁certain	-6910
▁Im	-6911
▁manag	-6912
▁wept	-6913
▁nood	-6914
oke	-6915
▁munch	-6916
▁spins	-6917
▁colder	-6918
▁echoed	-6919
▁scored	-6920
bage	-6921
▁cosy	-6922
▁convers	-6923
▁wakes	-6924
▁garbage	-6925
▁playroom	-6926
▁designs	-6927
▁performing	-6928
eezes	-6929
▁peck	-6930
Mine	-6931
▁prob	-6932
▁sank	-6933
▁flown	-6934
▁tricycle	-6935
▁Owl	-6936
▁sweetest	-6937
▁prove	-6938
▁probably	-6939
▁forgiving	-6940
▁marshmallows	-6941
ca	-6942
▁gest	-6943
▁behaving	-6944
cher	-6945
rying	-6946
iment	-6947
▁Jonny	-6948
▁pumpkins	-6949
▁guide	-6950
▁explorer	-6951
please	-6952
▁robots	-6953
▁squeezing	-6954
▁Fire	-6955
œIf	-6956
▁tossed	-6957
▁blinking	-6958
hew	-6959
bbling	-6960
▁causing	-6961
▁Jojo	-6962
..."	-6963
undred	-6964
▁bells	-6965
broken	-6966
▁shown	-6967
▁cobwebs	-6968
œOkay	-6969
urprise	-6970
▁Despite	-6971
▁squishy	-6972
▁Mae	-6973
Like	-6974
▁spices	-6975
▁haird	-6976
▁passengers	-6977
▁craft	-6978
▁congratul	-6979
fus	-6980
▁ties	-6981
▁healing	-6982
▁tighter	-6983
▁mate	-6984
▁angels	-6985
?!"	-6986
▁yielded	-6987
▁Louise	-6988
ading	-6989
▁reversed	-6990
ilda	-6991
▁pound	-6992
▁sadd	-6993
▁Dani	-6994
▁Yesterday	-6995
▁aimed	-6996
▁Curious	-6997
▁napping	-6998
▁giggles	-6999
upt	-7000
▁Tam	-7001
▁pays	-7002
▁nearly	-7003
▁offic	-7004
▁Ally	-7005
▁unw	-7006
▁distract	-7007
▁Still	-7008
▁kittens	-7009
▁instruments	-7010
▁Birdy	-7011
▁wider	-7012
Follow	-7013
▁reun	-7014
mates	-7015
▁sewing	-7016
alloween	-7017
▁til	-7018
aying	-7019
▁nuzz	-7020
▁doorway	-7021
▁conflict	-7022
▁clues	-7023
▁Because	-7024
▁appreciated	-7025
▁inj	-7026
▁Maisy	-7027
▁paintbrush	-7028
▁brushing	-7029
found	-7030
▁coug	-7031
▁shoo	-7032
▁grandd	-7033
▁action	-7034
▁yum	-7035
Watch	-7036
▁Well	-7037
▁ease	-7038
▁loading	-7039
▁bru	-7040
▁passports	-7041
▁cottage	-7042
onies	-7043
Alright	-7044
▁paths	-7045
▁Halloween	-7046
Sue	-7047
▁heartbroken	-7048
▁Rocky	-7049
▁ais	-7050
▁merma	-7051
▁blocked	-7052
▁Pen	-7053
▁laying	-7054
▁slipping	-7055
ino	-7056
▁sweep	-7057
▁results	-7058
▁anger	-7059
▁belts	-7060
▁repeating	-7061
▁pins	-7062
▁figures	-7063
▁bits	-7064
▁evil	-7065
antastic	-7066
▁soaking	-7067
idey	-7068
▁Pippa	-7069
▁mailed	-7070
▁within	-7071
asty	-7072
▁Hope	-7073
▁Start	-7074
▁twisty	-7075
isc	-7076
▁Mother	-7077
▁Pippin	-7078
▁twisting	-7079
▁suffered	-7080
dding	-7081
▁tuck	-7082
▁connected	-7083
▁Becky	-7084
▁puzzled	-7085
€,	-7086
▁shovels	-7087
▁buses	-7088
▁damaged	-7089
▁noodles	-7090
▁accomplished	-7091
▁und	-7092
▁crossing	-7093
▁hundred	-7094
ighting	-7095
▁breathing	-7096
▁sever	-7097
▁licking	-7098
▁behavior	-7099
▁roars	-7100
▁several	-7101
▁shrug	-7102
▁tying	-7103
▁responsib	-7104
▁bracelets	-7105
▁risks	-7106
▁surfing	-7107
▁surrendered	-7108
▁fleas	-7109
▁despite	-7110
▁finishing	-7111
evin	-7112
▁toward	-7113
▁sweat	-7114
œPlease	-7115
▁encount	-7116
▁Green	-7117
▁Spidey	-7118
▁lending	-7119
▁hairdress	-7120
▁streamers	-7121
▁defin	-7122
▁humming	-7123
▁Ga	-7124
byes	-7125
lves	-7126
▁Time	-7127
▁supported	-7128
▁Auntie	-7129
▁shady	-7130
▁oysters	-7131
▁awoke	-7132
▁cleaner	-7133
▁quieter	-7134
▁luckily	-7135
▁whose	-7136
▁goodbyes	-7137
œOf	-7138
▁Eliz	-7139
▁ignoring	-7140
▁stitches	-7141
▁rainy	-7142
▁rather	-7143
▁tablet	-7144
isions	-7145
▁ponies	-7146
Take	-7147
▁Flo	-7148
▁Wil	-7149
▁edges	-7150
▁Frankie	-7151
▁cuddles	-7152
erk	-7153
▁fantastic	-7154
unity	-7155
ecca	-7156
eling	-7157
▁cloudy	-7158
▁frowns	-7159
▁slither	-7160
▁Wally	-7161
Surprise	-7162
▁handing	-7163
ening	-7164
▁final	-7165
▁snowflakes	-7166
▁Janey	-7167
ppies	-7168
▁sped	-7169
▁drown	-7170
▁elbow	-7171
▁hairdresser	-7172
▁cotton	-7173
▁thorns	-7174
▁definitely	-7175
▁coral	-7176
▁rains	-7177
▁Pretty	-7178
▁focus	-7179
▁gesture	-7180
▁Luc	-7181
▁surv	-7182
▁kings	-7183
▁smallest	-7184
▁battle	-7185
▁sy	-7186
▁wisely	-7187
▁reminding	-7188
œNow	-7189
crow	-7190
▁correctly	-7191
▁vines	-7192
▁driveway	-7193
▁decisions	-7194
▁sou	-7195
▁Any	-7196
athy	-7197
onnie	-7198
▁peeled	-7199
▁newfound	-7200
▁squeaked	-7201
whe	-7202
▁chopped	-7203
▁sharks	-7204
▁prick	-7205
▁student	-7206
▁snort	-7207
▁warri	-7208
▁grandson	-7209
▁Rain	-7210
▁symbols	-7211
▁weeds	-7212
▁simply	-7213
▁fishes	-7214
▁Froggy	-7215
rie	-7216
▁Ar	-7217
cent	-7218
▁bandages	-7219
▁granddaughter	-7220
▁wobble	-7221
onse	-7222
▁response	-7223
▁nasty	-7224
▁except	-7225
▁exercises	-7226
steps	-7227
▁Daniel	-7228
▁stopping	-7229
▁Pepper	-7230
▁tar	-7231
▁occas	-7232
elie	-7233
▁afar	-7234
▁banged	-7235
▁ni	-7236
▁darl	-7237
▁darlings	-7238
▁inspired	-7239
father	-7240
▁travels	-7241
▁tipped	-7242
▁disturbing	-7243
▁fills	-7244
▁masterp	-7245
▁lent	-7246
▁flipped	-7247
œHey	-7248
▁footsteps	-7249
▁Jax	-7250
worm	-7251
▁pedaled	-7252
line	-7253
▁birdhouse	-7254
▁purr	-7255
▁spits	-7256
▁windowsill	-7257
▁travelling	-7258
▁ships	-7259
▁Welcome	-7260
▁convin	-7261
▁presented	-7262
aa	-7263
▁Stan	-7264
▁scarecrow	-7265
sol	-7266
▁address	-7267
▁punishment	-7268
▁planting	-7269
▁apologised	-7270
▁Ana	-7271
mered	-7272
▁chocolates	-7273
▁Dory	-7274
▁Joan	-7275
▁antic	-7276
▁Excitedly	-7277
ddie	-7278
▁forests	-7279
▁Bounce	-7280
▁surfboard	-7281
Cl	-7282
ms	-7283
▁congratulated	-7284
▁Elle	-7285
▁arranged	-7286
▁believing	-7287
▁reassured	-7288
▁trotted	-7289
▁Phil	-7290
▁Roger	-7291
▁reunited	-7292
▁Gus	-7293
▁nodding	-7294
▁encouragement	-7295
▁Pu	-7296
▁cheers	-7297
▁lies	-7298
▁images	-7299
▁Feeling	-7300
▁poppies	-7301
▁reapp	-7302
▁campfire	-7303
▁suits	-7304
▁business	-7305
▁clerk	-7306
▁Splash	-7307
▁target	-7308
ooky	-7309
▁marve	-7310
▁sails	-7311
▁magnif	-7312
issa	-7313
perate	-7314
▁officers	-7315
manda	-7316
▁backpacks	-7317
▁terrified	-7318
▁grip	-7319
▁Patty	-7320
▁covering	-7321
▁yel	-7322
utter	-7323
▁knots	-7324
▁activity	-7325
▁Bow	-7326
inkle	-7327
▁Nancy	-7328
▁yelped	-7329
▁wrinkled	-7330
▁surprising	-7331
▁expert	-7332
▁smelling	-7333
▁Other	-7334
Beep	-7335
▁mood	-7336
▁masterpiece	-7337
▁dep	-7338
▁Fighting	-7339
otte	-7340
▁Snowman	-7341
▁Amanda	-7342
▁changes	-7343
▁concert	-7344
▁chilly	-7345
▁spills	-7346
▁speeding	-7347
▁testing	-7348
▁Bri	-7349
▁tasting	-7350
▁braver	-7351
▁pleaded	-7352
▁sniffing	-7353
▁Okay	-7354
▁gears	-7355
▁delayed	-7356
▁comforting	-7357
▁calmly	-7358
▁Startled	-7359
ats	-7360
acle	-7361
▁Elly	-7362
asha	-7363
acles	-7364
▁labels	-7365
▁Dog	-7366
▁Duck	-7367
ider	-7368
▁mermaid	-7369
uackers	-7370
▁suggestion	-7371
▁aware	-7372
▁discussing	-7373
▁stumble	-7374
▁Try	-7375
▁Jean	-7376
▁jars	-7377
▁spies	-7378
we	-7379
▁mischie	-7380
▁belongings	-7381
▁worrying	-7382
▁bothering	-7383
▁magazines	-7384
flies	-7385
▁crowns	-7386
▁artwork	-7387
▁although	-7388
▁displayed	-7389
▁mischievous	-7390
▁understands	-7391
ails	-7392
▁Charlotte	-7393
▁puck	-7394
▁efforts	-7395
▁admiration	-7396
▁burying	-7397
screen	-7398
▁foxes	-7399
▁height	-7400
emma	-7401
▁hoo	-7402
▁unfortunately	-7403
pen	-7404
▁sav	-7405
Little	-7406
▁refuse	-7407
▁seller	-7408
▁baskets	-7409
▁toolbox	-7410
rier	-7411
ighing	-7412
▁Helen	-7413
▁buddy	-7414
▁Outside	-7415
▁bitten	-7416
▁Spe	-7417
▁experienced	-7418
▁decl	-7419
▁que	-7420
inted	-7421
▁bless	-7422
vroom	-7423
▁dragonfly	-7424
▁vehicles	-7425
wise	-7426
bell	-7427
▁packages	-7428
what	-7429
▁disc	-7430
▁solving	-7431
▁dump	-7432
▁Ty	-7433
ibbit	-7434
ugging	-7435
▁pandas	-7436
œA	-7437
▁annoyed	-7438
ipes	-7439
mbers	-7440
▁momma	-7441
aturday	-7442
▁members	-7443
▁tumbled	-7444
▁Eddie	-7445
▁seashells	-7446
▁Snowball	-7447
œThe	-7448
▁fires	-7449
▁warmly	-7450
▁Saturday	-7451
▁posit	-7452
▁wealth	-7453
▁nibbled	-7454
▁Lina	-7455
▁sunscreen	-7456
▁Eric	-7457
aint	-7458
▁peas	-7459
▁treated	-7460
▁troubles	-7461
▁squaw	-7462
▁rotting	-7463
▁Elsa	-7464
▁scent	-7465
▁material	-7466
▁Annab	-7467
œSure	-7468
▁Fort	-7469
▁conqu	-7470
▁stomp	-7471
▁gazing	-7472
▁coach	-7473
▁insisting	-7474
▁untied	-7475
▁diso	-7476
▁prayers	-7477
▁environ	-7478
▁parted	-7479
▁conversation	-7480
▁Tammy	-7481
▁Sasha	-7482
▁collap	-7483
▁Rudy	-7484
▁encountered	-7485
▁joins	-7486
▁loops	-7487
▁races	-7488
▁sewed	-7489
aver	-7490
▁sill	-7491
▁teachers	-7492
▁environment	-7493
▁scurrying	-7494
owing	-7495
attered	-7496
▁whispering	-7497
▁argum	-7498
▁joked	-7499
▁tilted	-7500
▁purpose	-7501
▁Ava	-7502
▁orders	-7503
▁stored	-7504
▁loses	-7505
Dear	-7506
▁exch	-7507
▁hoops	-7508
▁genie	-7509
▁cowboy	-7510
▁Fortunately	-7511
ppa	-7512
▁tweet	-7513
▁sheets	-7514
▁spooky	-7515
order	-7516
▁toss	-7517
▁permitted	-7518
airy	-7519
Get	-7520
▁Terry	-7521
Goodnight	-7522
ongo	-7523
▁aim	-7524
▁diamonds	-7525
▁type	-7526
iscuit	-7527
▁scram	-7528
▁pupils	-7529
▁anticip	-7530
▁glittering	-7531
▁Sw	-7532
▁trans	-7533
▁queens	-7534
▁turtles	-7535
illiam	-7536
▁beaming	-7537
▁nearest	-7538
▁ends	-7539
▁tubes	-7540
▁maker	-7541
▁servant	-7542
œSee	-7543
▁Ly	-7544
▁Jason	-7545
▁films	-7546
▁donkey	-7547
▁visitors	-7548
▁opport	-7549
▁spells	-7550
▁gap	-7551
igger	-7552
▁untie	-7553
▁Stitch	-7554
▁Woo	-7555
▁fins	-7556
▁stroke	-7557
▁cleared	-7558
▁rin	-7559
immy	-7560
▁oppos	-7561
▁tapping	-7562
▁Min	-7563
▁nurses	-7564
▁wasting	-7565
▁customers	-7566
usty	-7567
▁priz	-7568
▁swo	-7569
▁shall	-7570
▁hunters	-7571
▁ger	-7572
▁convinced	-7573
▁Grand	-7574
▁wounds	-7575
▁swollen	-7576
aven	-7577
▁Hold	-7578
▁Seeing	-7579
▁goats	-7580
▁Speedy	-7581
▁sweaty	-7582
Every	-7583
▁Izzy	-7584
▁Poor	-7585
▁slowed	-7586
▁dressing	-7587
▁William	-7588
▁Bobbie	-7589
▁declared	-7590
▁dot	-7591
▁examining	-7592
elope	-7593
orter	-7594
▁Sk	-7595
▁opposite	-7596
▁Ricky	-7597
▁characters	-7598
ilities	-7599
▁failed	-7600
▁Nana	-7601
▁Elsie	-7602
▁tidied	-7603
▁transf	-7604
▁grandfather	-7605
▁warrior	-7606
▁Finny	-7607
▁forgiveness	-7608
▁sternly	-7609
▁goodies	-7610
▁guessing	-7611
▁lipstick	-7612
Leave	-7613
▁peep	-7614
▁youngest	-7615
▁scratching	-7616
▁seagulls	-7617
mies	-7618
rest	-7619
▁inchworm	-7620
▁beeped	-7621
empt	-7622
▁Lion	-7623
▁meowing	-7624
▁rescuing	-7625
▁thanking	-7626
▁questioned	-7627
▁Spring	-7628
▁attempt	-7629
▁scrambled	-7630
▁La	-7631
▁Youâ	-7632
▁grat	-7633
▁dripping	-7634
Wh	-7635
ouqu	-7636
▁bouqu	-7637
▁tires	-7638
▁active	-7639
▁Oliv	-7640
▁form	-7641
▁Bongo	-7642
▁stall	-7643
▁anticipation	-7644
rily	-7645
▁nibble	-7646
▁picnics	-7647
acy	-7648
▁aisle	-7649
▁blond	-7650
▁floors	-7651
▁responded	-7652
▁responsibility	-7653
▁shin	-7654
▁matey	-7655
▁smashed	-7656
▁attacked	-7657
▁force	-7658
▁explains	-7659
▁emerged	-7660
▁knocking	-7661
▁obeyed	-7662
▁inter	-7663
▁Taking	-7664
▁gratitude	-7665
▁discoveries	-7666
▁jud	-7667
▁ting	-7668
▁vibr	-7669
cie	-7670
▁rely	-7671
Stay	-7672
▁rays	-7673
▁zooms	-7674
▁decoration	-7675
▁charge	-7676
▁manners	-7677
▁classmates	-7678
▁Tessa	-7679
▁Amber	-7680
▁sprout	-7681
▁sens	-7682
▁snug	-7683
▁Brian	-7684
▁visits	-7685
▁signing	-7686
▁Reb	-7687
▁Peppa	-7688
œWho	-7689
▁spy	-7690
▁aeroplanes	-7691
▁soot	-7692
▁girlâ	-7693
▁twists	-7694
▁survive	-7695
▁vegg	-7696
Always	-7697
▁instantly	-7698
anda	-7699
munk	-7700
ippers	-7701
Fl	-7702
So	-7703
▁Win	-7704
▁loc	-7705
▁wiggly	-7706
▁Beh	-7707
▁self	-7708
▁seals	-7709
▁breaths	-7710
▁unwra	-7711
roll	-7712
▁ramp	-7713
▁rumbling	-7714
▁Rebecca	-7715
sm	-7716
act	-7717
▁Gary	-7718
▁buckled	-7719
ana	-7720
▁brightest	-7721
▁Penelope	-7722
▁shrunk	-7723
yl	-7724
▁beeh	-7725
▁bond	-7726
▁munched	-7727
▁Matilda	-7728
▁increasing	-7729
▁hen	-7730
athan	-7731
▁purrs	-7732
▁manager	-7733
▁shimmering	-7734
idence	-7735
▁flaps	-7736
▁earned	-7737
▁doorbell	-7738
▁chatter	-7739
gain	-7740
ooking	-7741
▁Olivia	-7742
ching	-7743
udged	-7744
▁lowered	-7745
▁swaying	-7746
▁movements	-7747
iens	-7748
▁Crabby	-7749
ittered	-7750
▁aliens	-7751
▁cracks	-7752
▁honking	-7753
All	-7754
▁Ant	-7755
▁argument	-7756
ssss	-7757
▁Chick	-7758
▁disobey	-7759
▁chipmunk	-7760
inger	-7761
▁whoever	-7762
▁winding	-7763
romise	-7764
▁Fel	-7765
ummies	-7766
▁announced	-7767
▁prevented	-7768
its	-7769
œGood	-7770
▁beaver	-7771
▁rowed	-7772
▁Sparkle	-7773
▁bathing	-7774
▁switched	-7775
lied	-7776
▁amu	-7777
▁mosquitoes	-7778
▁taped	-7779
storm	-7780
▁Step	-7781
oscope	-7782
▁poses	-7783
▁offering	-7784
▁swap	-7785
▁nuzzled	-7786
aby	-7787
▁cons	-7788
▁prickly	-7789
aret	-7790
flowers	-7791
▁Ashley	-7792
▁Shelly	-7793
▁swayed	-7794
▁flips	-7795
▁steth	-7796
uel	-7797
▁destroying	-7798
▁lapt	-7799
▁Robo	-7800
▁minds	-7801
▁designing	-7802
bee	-7803
▁Mam	-7804
▁cares	-7805
▁Behind	-7806
▁badger	-7807
Letâ	-7808
▁jobs	-7809
▁dodged	-7810
▁rats	-7811
▁Jilly	-7812
▁crawls	-7813
▁glimmering	-7814
ddles	-7815
▁Ever	-7816
▁Angel	-7817
▁whistles	-7818
▁smelt	-7819
Bang	-7820
▁crops	-7821
▁Sir	-7822
rink	-7823
▁observing	-7824
▁beautifully	-7825
▁dangers	-7826
▁shines	-7827
▁beating	-7828
▁exploded	-7829
uickly	-7830
▁Sweet	-7831
▁knives	-7832
▁scolds	-7833
▁million	-7834
▁checkout	-7835
▁scooters	-7836
▁snaps	-7837
▁stamped	-7838
angle	-7839
▁Ready	-7840
da	-7841
▁customer	-7842
▁generosity	-7843
lph	-7844
▁Eliza	-7845
▁groan	-7846
▁deed	-7847
▁languages	-7848
boards	-7849
▁germs	-7850
▁recorder	-7851
▁hike	-7852
▁honesty	-7853
▁tummies	-7854
▁stethoscope	-7855
▁robbers	-7856
oc	-7857
▁Gracie	-7858
▁cocoon	-7859
▁closing	-7860
▁paddling	-7861
▁Bad	-7862
▁Cle	-7863
▁Bert	-7864
▁drowned	-7865
▁plug	-7866
▁haven	-7867
▁clicked	-7868
lt	-7869
▁Cara	-7870
▁Trust	-7871
▁expecting	-7872
abra	-7873
▁laptop	-7874
▁Se	-7875
▁Pau	-7876
▁Never	-7877
▁routine	-7878
▁supplied	-7879
▁astronauts	-7880
Mr	-7881
▁Peggy	-7882
▁explor	-7883
▁disappoint	-7884
▁veggies	-7885
▁court	-7886
ulp	-7887
lor	-7888
▁Nora	-7889
▁Rud	-7890
▁dears	-7891
▁steering	-7892
oosh	-7893
otch	-7894
▁adds	-7895
▁Bonnie	-7896
▁bouquet	-7897
▁conduct	-7898
▁tidying	-7899
▁beehive	-7900
Any	-7901
lest	-7902
▁ill	-7903
▁sculp	-7904
▁novels	-7905
▁unpacking	-7906
œMaybe	-7907
arable	-7908
▁cupcake	-7909
▁statues	-7910
ita	-7911
▁tin	-7912
▁chatted	-7913
▁particularly	-7914
▁Jenn	-7915
▁reminds	-7916
▁Gabby	-7917
pit	-7918
olph	-7919
▁shorts	-7920
▁caw	-7921
▁hardest	-7922
▁De	-7923
▁applause	-7924
▁healthier	-7925
▁stretches	-7926
▁Ho	-7927
▁Isn	-7928
water	-7929
▁Donâ	-7930
▁Belle	-7931
▁wiser	-7932
▁floats	-7933
▁ghosts	-7934
▁conductor	-7935
Arrr	-7936
▁strum	-7937
▁heaven	-7938
Nice	-7939
▁awful	-7940
▁dollar	-7941
▁Cr	-7942
▁plugged	-7943
pril	-7944
▁Rudolph	-7945
rup	-7946
▁wildflowers	-7947
▁scri	-7948
▁Riley	-7949
▁elect	-7950
Too	-7951
▁Ele	-7952
▁Tyler	-7953
idents	-7954
idnight	-7955
▁traded	-7956
▁overhead	-7957
▁squished	-7958
An	-7959
▁whatâ	-7960
Someone	-7961
▁combed	-7962
▁nests	-7963
▁carries	-7964
▁opinions	-7965
▁Carla	-7966
▁syrup	-7967
▁faint	-7968
▁fascinating	-7969
▁Andrew	-7970
anced	-7971
▁swallow	-7972
▁experiences	-7973
▁Right	-7974
▁sprays	-7975
▁beast	-7976
▁umbrellas	-7977
omb	-7978
▁container	-7979
▁ouch	-7980
elieve	-7981
▁killed	-7982
▁bothered	-7983
▁returning	-7984
ative	-7985
rough	-7986
▁gall	-7987
▁locks	-7988
▁April	-7989
▁providing	-7990
five	-7991
▁sets	-7992
▁flashing	-7993
▁Immediately	-7994
▁Paula	-7995
earing	-7996
▁examp	-7997
▁shorter	-7998
œOk	-7999
▁sculpture	-8000
▁Rosa	-8001
▁flashed	-8002
chy	-8003
▁checks	-8004
▁weapons	-8005
rench	-8006
▁teles	-8007
ouraged	-8008
▁bounces	-8009
▁tearing	-8010
▁Har	-8011
œBe	-8012
▁papa	-8013
orking	-8014
▁tests	-8015
▁hotter	-8016
ordinary	-8017
▁defeated	-8018
▁inches	-8019
▁Another	-8020
▁glided	-8021
▁farmers	-8022
▁grumbled	-8023
▁sprinkle	-8024
lo	-8025
▁scrub	-8026
▁nights	-8027
▁faith	-8028
ccidents	-8029
▁hu	-8030
centr	-8031
▁burnt	-8032
ators	-8033
▁Flora	-8034
▁conv	-8035
▁telescope	-8036
▁Liam	-8037
▁Melissa	-8038
bu	-8039
▁Foxy	-8040
▁Butter	-8041
▁sadder	-8042
▁Prince	-8043
eople	-8044
▁Bang	-8045
▁concentr	-8046
▁trusting	-8047
▁Annabelle	-8048
▁applauding	-8049
▁confidence	-8050
ooks	-8051
▁twenty	-8052
▁serving	-8053
iving	-8054
▁electric	-8055
▁hiss	-8056
▁Fairy	-8057
▁convince	-8058
ession	-8059
▁cheated	-8060
▁gardens	-8061
lers	-8062
ended	-8063
▁icing	-8064
▁bluebird	-8065
▁Mila	-8066
▁necks	-8067
▁Dino	-8068
▁burns	-8069
▁awhile	-8070
▁crystals	-8071
Choo	-8072
▁Wooly	-8073
▁cubs	-8074
▁Say	-8075
▁visitor	-8076
▁teams	-8077
▁petting	-8078
vy	-8079
parable	-8080
▁raising	-8081
Molly	-8082
▁collapsed	-8083
ances	-8084
▁checking	-8085
▁extraordinary	-8086
▁inseparable	-8087
▁blown	-8088
▁dryer	-8089
▁goo	-8090
▁Pick	-8091
▁sirens	-8092
▁forgives	-8093
▁Wigg	-8094
▁Barry	-8095
▁types	-8096
▁munching	-8097
▁soapy	-8098
▁member	-8099
▁example	-8100
▁Liza	-8101
▁born	-8102
▁odd	-8103
▁grassho	-8104
▁imaginary	-8105
▁instrument	-8106
Put	-8107
▁playd	-8108
▁biscuit	-8109
▁natur	-8110
▁prizes	-8111
▁behaviour	-8112
bl	-8113
▁mac	-8114
Billy	-8115
▁meows	-8116
▁singers	-8117
▁waded	-8118
▁bicycles	-8119
His	-8120
val	-8121
▁kit	-8122
▁momâ	-8123
over	-8124
▁Mona	-8125
▁Magic	-8126
▁compan	-8127
▁Sparkles	-8128
shaped	-8129
▁sprang	-8130
▁Smo	-8131
▁waters	-8132
▁flick	-8133
▁salon	-8134
▁peeped	-8135
▁dock	-8136
▁upside	-8137
On	-8138
▁lim	-8139
▁flip	-8140
▁Twinkle	-8141
▁opportunity	-8142
adabra	-8143
▁Lenny	-8144
▁Rufus	-8145
▁attitude	-8146
▁exploration	-8147
▁invent	-8148
▁traveling	-8149
▁Candy	-8150
▁longest	-8151
▁conquered	-8152
Boys	-8153
▁unlo	-8154
▁expression	-8155
▁distracted	-8156
▁Rich	-8157
▁hood	-8158
▁sandy	-8159
adually	-8160
▁bride	-8161
▁realizes	-8162
▁cheaper	-8163
▁hunting	-8164
cadabra	-8165
▁deserved	-8166
emies	-8167
▁enemies	-8168
▁flowing	-8169
▁fet	-8170
▁unable	-8171
▁wriggled	-8172
▁Willy	-8173
▁pills	-8174
▁coolest	-8175
▁trigger	-8176
▁Pin	-8177
▁sweaters	-8178
▁Wo	-8179
▁Sky	-8180
▁mommies	-8181
▁flock	-8182
▁engines	-8183
▁Jose	-8184
▁envelopes	-8185
getic	-8186
▁Jody	-8187
▁Pet	-8188
▁otters	-8189
▁bomb	-8190
▁gulp	-8191
▁clearly	-8192
In	-8193
str	-8194
rick	-8195
Sally	-8196
▁discouraged	-8197
Sarah	-8198
▁rows	-8199
▁burger	-8200
▁swimmer	-8201
▁Ne	-8202
free	-8203
whel	-8204
▁whales	-8205
▁clip	-8206
▁compete	-8207
▁reappeared	-8208
erg	-8209
▁chatting	-8210
▁tips	-8211
ouched	-8212
▁Midnight	-8213
▁grasshopper	-8214
▁passes	-8215
▁countries	-8216
▁quacking	-8217
▁glittered	-8218
ending	-8219
▁robin	-8220
▁sometime	-8221
jest	-8222
▁Sand	-8223
aptain	-8224
▁thump	-8225
▁overwhel	-8226
balls	-8227
▁unco	-8228
▁torto	-8229
Pl	-8230
icate	-8231
▁ability	-8232
ship	-8233
▁Jennie	-8234
▁patches	-8235
▁annoying	-8236
▁Ed	-8237
ingo	-8238
▁Oliver	-8239
▁mattered	-8240
off	-8241
▁Oink	-8242
▁details	-8243
▁spilling	-8244
▁Make	-8245
▁strips	-8246
▁enjoyable	-8247
Ab	-8248
▁tortoise	-8249
▁common	-8250
▁fond	-8251
▁crowded	-8252
▁cheat	-8253
▁whined	-8254
▁sincere	-8255
iter	-8256
▁Stri	-8257
▁gallop	-8258
▁treas	-8259
▁thicker	-8260
œO	-8261
▁Martin	-8262
▁approach	-8263
▁relaxing	-8264
▁uniforms	-8265
▁doz	-8266
▁Gray	-8267
▁jugg	-8268
▁soundly	-8269
▁surely	-8270
▁yawning	-8271
▁companion	-8272
▁hangers	-8273
▁cheerfully	-8274
▁Boo	-8275
▁curl	-8276
▁marking	-8277
▁Bra	-8278
▁Show	-8279
aus	-8280
oard	-8281
Jo	-8282
iolet	-8283
stand	-8284
▁Janet	-8285
▁skies	-8286
▁Joanna	-8287
▁Nice	-8288
▁prod	-8289
▁Looking	-8290
▁cafe	-8291
▁stur	-8292
▁formed	-8293
▁whisk	-8294
▁becomes	-8295
▁natural	-8296
▁Through	-8297
▁Moo	-8298
▁outfits	-8299
▁washes	-8300
▁beetles	-8301
▁treasured	-8302
▁Monkey	-8303
▁Care	-8304
▁Again	-8305
▁Yum	-8306
▁noticing	-8307
▁aboard	-8308
▁bubbly	-8309
▁vibrant	-8310
▁squeaky	-8311
▁airplanes	-8312
▁repairman	-8313
bur	-8314
▁moat	-8315
▁Mamma	-8316
▁BunBun	-8317
▁weighing	-8318
elvet	-8319
▁moonlight	-8320
shadow	-8321
▁shallow	-8322
▁Accidents	-8323
asmine	-8324
iggie	-8325
▁backs	-8326
▁haircuts	-8327
Amy	-8328
▁melody	-8329
▁Leah	-8330
▁chin	-8331
▁hab	-8332
▁pleas	-8333
▁Tiger	-8334
▁swirls	-8335
▁storms	-8336
▁newspapers	-8337
uggy	-8338
▁bund	-8339
▁chill	-8340
▁Oh	-8341
▁commun	-8342
▁Captain	-8343
ering	-8344
▁mugs	-8345
▁blonde	-8346
▁hummed	-8347
▁freezing	-8348
hole	-8349
▁Alf	-8350
▁erase	-8351
▁cowboys	-8352
▁miracle	-8353
▁sneezes	-8354
▁dev	-8355
faction	-8356
▁messes	-8357
▁pepperoni	-8358
▁slee	-8359
▁satisfaction	-8360
ighty	-8361
▁lump	-8362
▁calmer	-8363
▁compliment	-8364
▁Er	-8365
œYay	-8366
▁squinted	-8367
endant	-8368
▁scattering	-8369
▁blushed	-8370
Tr	-8371
ints	-8372
venir	-8373
▁clue	-8374
▁sipped	-8375
▁successfully	-8376
▁leaking	-8377
▁occasion	-8378
▁souvenir	-8379
▁situations	-8380
▁coughed	-8381
▁joyfully	-8382
▁models	-8383
▁positive	-8384
',	-8385
isp	-8386
▁Ginger	-8387
▁glittery	-8388
ware	-8389
▁meatballs	-8390
▁Over	-8391
▁bruises	-8392
▁smartest	-8393
▁Off	-8394
▁yumm	-8395
▁Johny	-8396
immered	-8397
▁weighs	-8398
Tw	-8399
▁ank	-8400
▁scenery	-8401
▁explaining	-8402
Fluffy	-8403
▁Whoever	-8404
▁local	-8405
▁Hello	-8406
▁tickling	-8407
▁answering	-8408
ift	-8409
bank	-8410
▁snowy	-8411
▁scares	-8412
▁unfair	-8413
Joe	-8414
▁Avery	-8415
▁burgers	-8416
▁rewards	-8417
▁pressing	-8418
▁Jasmine	-8419
▁talents	-8420
▁pinching	-8421
amboo	-8422
▁shattered	-8423
▁welcoming	-8424
amil	-8425
Jimmy	-8426
etchup	-8427
▁possib	-8428
▁bulbs	-8429
▁Per	-8430
▁Choo	-8431
▁teap	-8432
▁rewarding	-8433
sie	-8434
▁cleans	-8435
▁hisses	-8436
belt	-8437
▁Super	-8438
▁roast	-8439
▁rubbish	-8440
Hmm	-8441
▁bound	-8442
▁pantry	-8443
ili	-8444
Hold	-8445
▁scow	-8446
HE	-8447
▁rowing	-8448
▁Cathy	-8449
▁traps	-8450
▁Playing	-8451
▁practised	-8452
▁crocodiles	-8453
▁binoc	-8454
oor	-8455
▁digs	-8456
▁teapot	-8457
▁Sunshine	-8458
▁intently	-8459
▁forts	-8460
▁sturdy	-8461
scotch	-8462
▁minded	-8463
▁Chickie	-8464
▁groaned	-8465
▁Man	-8466
▁whimp	-8467
▁Hootie	-8468
▁pilots	-8469
▁Thankfully	-8470
▁cells	-8471
▁marveled	-8472
▁rebu	-8473
▁baller	-8474
beep	-8475
▁topp	-8476
▁Bruce	-8477
▁Steven	-8478
▁tempted	-8479
▁seatbelt	-8480
icious	-8481
▁horri	-8482
now	-8483
Honey	-8484
▁pipes	-8485
amiliar	-8486
▁angrily	-8487
▁stuffing	-8488
▁bends	-8489
▁tunes	-8490
▁apology	-8491
▁ketchup	-8492
▁sandpit	-8493
▁finishes	-8494
▁unfamiliar	-8495
▁Of	-8496
▁funn	-8497
▁microw	-8498
▁smoking	-8499
▁Nate	-8500
▁croaked	-8501
▁bubbling	-8502
▁doorstep	-8503
▁fireflies	-8504
mel	-8505
▁invites	-8506
▁tentacles	-8507
▁lookout	-8508
▁meadows	-8509
▁goodness	-8510
▁energetic	-8511
▁Life	-8512
▁microwave	-8513
jack	-8514
▁Brad	-8515
▁runner	-8516
!'.	-8517
acock	-8518
▁Felix	-8519
▁sweeter	-8520
▁Dot	-8521
▁clut	-8522
▁shyly	-8523
▁tugging	-8524
œWeâ	-8525
▁chews	-8526
▁embra	-8527
Ahoy	-8528
▁exchange	-8529
▁spoiling	-8530
ifi	-8531
▁Gold	-8532
▁acts	-8533
▁messages	-8534
Em	-8535
nded	-8536
▁cages	-8537
▁shrank	-8538
▁stepping	-8539
lish	-8540
▁Elephant	-8541
▁strolled	-8542
▁watermel	-8543
▁overwhelmed	-8544
▁weâ	-8545
umper	-8546
▁ripp	-8547
▁moons	-8548
rupt	-8549
▁lar	-8550
▁boards	-8551
▁cheating	-8552
▁slapping	-8553
▁protection	-8554
▁Te	-8555
▁hesitation	-8556
▁caterpillars	-8557
▁crisp	-8558
Che	-8559
ulars	-8560
▁jets	-8561
▁obst	-8562
▁gasps	-8563
▁defeat	-8564
▁Rat	-8565
▁dou	-8566
▁inju	-8567
▁lull	-8568
▁chopping	-8569
▁Light	-8570
▁popsic	-8571
Once	-8572
▁Fifi	-8573
sey	-8574
anie	-8575
scar	-8576
▁Fly	-8577
otion	-8578
▁connect	-8579
Achoo	-8580
▁fade	-8581
▁melons	-8582
▁underwater	-8583
▁Isab	-8584
▁foam	-8585
▁Beep	-8586
▁aston	-8587
▁consider	-8588
▁Tre	-8589
▁binoculars	-8590
▁Does	-8591
▁alley	-8592
▁certainly	-8593
▁demanding	-8594
▁playhouse	-8595
how	-8596
▁Josie	-8597
ka	-8598
▁pouch	-8599
For	-8600
ole	-8601
▁shares	-8602
▁section	-8603
▁crouched	-8604
▁ballerina	-8605
▁Randy	-8606
▁cherish	-8607
▁slithered	-8608
▁month	-8609
Anytime	-8610
▁Gemma	-8611
▁fishy	-8612
▁Surpr	-8613
▁loyalty	-8614
racadabra	-8615
▁Jackâ	-8616
▁bamboo	-8617
▁differently	-8618
yle	-8619
chief	-8620
▁guards	-8621
▁pounced	-8622
▁hopscotch	-8623
▁''	-8624
▁rips	-8625
▁Mighty	-8626
▁peacock	-8627
▁transformed	-8628
anted	-8629
▁recess	-8630
▁meaning	-8631
▁disappointment	-8632
▁Peep	-8633
▁fist	-8634
▁riverbank	-8635
▁prog	-8636
iciest	-8637
▁unwrapped	-8638
Danger	-8639
▁squeezes	-8640
▁Carol	-8641
Bl	-8642
▁Chuck	-8643
▁Oscar	-8644
▁Sleep	-8645
▁icky	-8646
▁Minnie	-8647
▁Patrick	-8648
▁landing	-8649
▁playdate	-8650
▁THE	-8651
Never	-8652
▁rack	-8653
▁ankle	-8654
▁stores	-8655
oss	-8656
▁pokes	-8657
▁raking	-8658
▁sweetly	-8659
▁fries	-8660
alled	-8661
▁Allie	-8662
▁erupt	-8663
▁cherished	-8664
▁nightmares	-8665
▁Ms	-8666
▁Whe	-8667
cycles	-8668
▁Tears	-8669
▁Sandra	-8670
▁amused	-8671
▁whimpered	-8672
▁arrest	-8673
iring	-8674
solut	-8675
▁Wait	-8676
▁thie	-8677
▁napped	-8678
▁snorted	-8679
,'	-8680
▁Con	-8681
▁thrill	-8682
▁birdy	-8683
Soon	-8684
▁judges	-8685
▁teamwork	-8686
▁Weâ	-8687
rum	-8688
Open	-8689
▁Claus	-8690
▁actor	-8691
gets	-8692
œHow	-8693
▁crickets	-8694
edic	-8695
▁blades	-8696
▁majest	-8697
▁Day	-8698
▁curre	-8699
▁mayor	-8700
▁thunderstorm	-8701
▁Fish	-8702
▁centre	-8703
ulf	-8704
▁shoel	-8705
▁Ravi	-8706
▁Marley	-8707
▁gates	-8708
▁injured	-8709
▁tickles	-8710
▁watermelon	-8711
▁sacks	-8712
▁groups	-8713
▁thieves	-8714
▁mysteries	-8715
Jane	-8716
▁styles	-8717
▁snapping	-8718
rob	-8719
othy	-8720
▁Mine	-8721
▁Birdie	-8722
▁miller	-8723
▁lumberjack	-8724
emy	-8725
▁roo	-8726
▁Rita	-8727
▁stew	-8728
▁leans	-8729
▁Stanley	-8730
▁Sal	-8731
▁Ouch	-8732
▁creams	-8733
▁temptation	-8734
▁tant	-8735
isdom	-8736
uster	-8737
▁Share	-8738
▁Wilbur	-8739
▁boil	-8740
▁enemy	-8741
▁townsp	-8742
▁keyhole	-8743
▁condition	-8744
▁Bamb	-8745
▁Boun	-8746
▁choosing	-8747
▁structures	-8748
▁intelligence	-8749
uess	-8750
▁spare	-8751
▁frustration	-8752
Benny	-8753
▁Jere	-8754
▁hundreds	-8755
that	-8756
▁ding	-8757
▁charm	-8758
tern	-8759
▁ruff	-8760
uction	-8761
▁scene	-8762
Hurry	-8763
▁whir	-8764
inct	-8765
hings	-8766
▁auntie	-8767
Tweet	-8768
nces	-8769
▁heels	-8770
▁banging	-8771
▁seasons	-8772
ige	-8773
ris	-8774
▁Lots	-8775
▁swimsuits	-8776
▁sleeps	-8777
▁supporting	-8778
icest	-8779
oured	-8780
▁Bambi	-8781
▁Mumma	-8782
▁benches	-8783
▁weaker	-8784
▁tantrum	-8785
▁computers	-8786
First	-8787
▁rebuild	-8788
▁level	-8789
▁levers	-8790
▁textures	-8791
▁Nell	-8792
▁communicate	-8793
sers	-8794
▁bas	-8795
▁nicest	-8796
▁trading	-8797
uno	-8798
▁bold	-8799
▁hissing	-8800
▁wiggling	-8801
▁Gw	-8802
▁electricity	-8803
▁townspeople	-8804
reled	-8805
▁Jodie	-8806
▁timid	-8807
▁shinier	-8808
▁luckiest	-8809
▁lush	-8810
▁alongside	-8811
lyn	-8812
▁plo	-8813
▁claw	-8814
▁dart	-8815
▁camel	-8816
▁spears	-8817
▁trusty	-8818
▁Jonathan	-8819
▁experiment	-8820
gar	-8821
▁Tra	-8822
▁stun	-8823
Jill	-8824
▁warmed	-8825
▁tot	-8826
▁Tree	-8827
▁trusts	-8828
▁glisten	-8829
▁pedaling	-8830
reg	-8831
▁prank	-8832
▁thumbs	-8833
▁softened	-8834
▁magnifying	-8835
under	-8836
▁quarreled	-8837
▁da	-8838
Which	-8839
▁mooed	-8840
▁kneeling	-8841
▁Fa	-8842
▁Woof	-8843
▁foggy	-8844
prints	-8845
▁whine	-8846
▁reversing	-8847
▁toothbrush	-8848
▁cops	-8849
▁disappearing	-8850
▁skirts	-8851
▁astonished	-8852
▁harvest	-8853
"!	-8854
▁Hug	-8855
▁knobs	-8856
▁worst	-8857
▁guarding	-8858
▁Near	-8859
Grandpa	-8860
▁writer	-8861
ormation	-8862
▁boiling	-8863
mie	-8864
▁tops	-8865
▁groom	-8866
solutely	-8867
▁Ber	-8868
▁Jeremy	-8869
▁fetched	-8870
▁Carefully	-8871
▁yelp	-8872
▁compared	-8873
▁continuing	-8874
aisie	-8875
œM	-8876
▁baa	-8877
▁concerned	-8878
cat	-8879
cell	-8880
▁motorcycles	-8881
▁Hank	-8882
▁creep	-8883
▁oldest	-8884
▁unless	-8885
▁magically	-8886
▁Colin	-8887
▁revealing	-8888
▁Alan	-8889
▁bowing	-8890
▁improving	-8891
▁sensation	-8892
▁Was	-8893
œThanks	-8894
▁Peanut	-8895
▁kangaroos	-8896
▁canv	-8897
▁Buggy	-8898
▁Hurry	-8899
▁lullaby	-8900
▁cupboards	-8901
guard	-8902
barrow	-8903
▁Hopper	-8904
▁cuddling	-8905
▁wheelbarrow	-8906
Try	-8907
ala	-8908
▁peak	-8909
▁Libby	-8910
▁Buster	-8911
▁doesnâ	-8912
ial	-8913
oto	-8914
Teddy	-8915
▁owns	-8916
▁bushy	-8917
▁poisonous	-8918
ker	-8919
▁Cook	-8920
▁Girl	-8921
▁Rainbow	-8922
▁popping	-8923
▁embarrassing	-8924
ps	-8925
agine	-8926
▁Lucas	-8927
▁brains	-8928
▁cooled	-8929
▁journeys	-8930
▁wrench	-8931
▁disagre	-8932
▁soothing	-8933
inny	-8934
▁Clare	-8935
▁whirl	-8936
▁Maisie	-8937
urity	-8938
▁aloud	-8939
▁guardian	-8940
▁blade	-8941
▁drying	-8942
▁shoots	-8943
Deal	-8944
ibly	-8945
well	-8946
▁narrow	-8947
▁realise	-8948
▁shh	-8949
▁JoJo	-8950
▁sneaks	-8951
▁allowing	-8952
ifer	-8953
▁troll	-8954
▁invitations	-8955
▁arom	-8956
▁Summer	-8957
▁Thumper	-8958
▁coughing	-8959
œWelcome	-8960
iky	-8961
▁Gwen	-8962
▁canvas	-8963
▁facing	-8964
▁courageous	-8965
œS	-8966
▁--	-8967
▁facts	-8968
Does	-8969
▁Whatâ	-8970
▁allerg	-8971
▁larger	-8972
ogo	-8973
▁Math	-8974
▁mindful	-8975
Abracadabra	-8976
▁Gret	-8977
cutter	-8978
vering	-8979
▁sleds	-8980
▁dashed	-8981
▁deeply	-8982
▁cracker	-8983
▁heavily	-8984
ai	-8985
▁Ria	-8986
▁bud	-8987
▁puppets	-8988
▁mustered	-8989
▁Dra	-8990
aling	-8991
▁nearer	-8992
▁angrier	-8993
▁disaster	-8994
▁Char	-8995
▁susp	-8996
▁current	-8997
▁Jennifer	-8998
mark	-8999
▁blooms	-9000
▁whoosh	-9001
▁sobbing	-9002
▁costs	-9003
▁honks	-9004
▁quilt	-9005
▁desper	-9006
inging	-9007
▁instinct	-9008
▁Ice	-9009
▁caps	-9010
▁knit	-9011
▁medals	-9012
▁cousins	-9013
▁foreshadow	-9014
▁hollow	-9015
▁completing	-9016
▁shrugs	-9017
▁circled	-9018
▁zips	-9019
▁Patches	-9020
▁property	-9021
▁realizing	-9022
▁scoops	-9023
▁repeats	-9024
▁Toto	-9025
▁hips	-9026
▁throne	-9027
▁loudest	-9028
▁contented	-9029
pect	-9030
▁mold	-9031
▁hangs	-9032
▁wolves	-9033
▁flashes	-9034
▁warmest	-9035
▁repairing	-9036
▁Gl	-9037
▁depart	-9038
▁whipped	-9039
▁Tomorrow	-9040
rap	-9041
ashes	-9042
▁copied	-9043
▁attempts	-9044
▁lava	-9045
▁till	-9046
elling	-9047
▁skate	-9048
▁lizards	-9049
▁plopped	-9050
▁security	-9051
▁cooperate	-9052
▁opt	-9053
▁necess	-9054
this	-9055
▁exh	-9056
colored	-9057
antern	-9058
▁waking	-9059
▁winds	-9060
▁woodcutter	-9061
▁pose	-9062
▁spiky	-9063
▁cutter	-9064
▁sooner	-9065
▁harmony	-9066
▁heâ	-9067
▁achievement	-9068
▁dozed	-9069
▁Pinchy	-9070
▁flooded	-9071
▁preschool	-9072
▁footprints	-9073
sa	-9074
cri	-9075
▁allowance	-9076
▁Bark	-9077
œThere	-9078
▁rails	-9079
▁fights	-9080
▁glared	-9081
▁huddled	-9082
▁kayaking	-9083
▁pleasant	-9084
▁Matthew	-9085
▁calming	-9086
▁lunchtime	-9087
▁isnâ	-9088
▁manâ	-9089
▁theat	-9090
▁incredibly	-9091
▁juiciest	-9092
▁Jes	-9093
▁minding	-9094
rrrr	-9095
▁Deal	-9096
▁tale	-9097
▁hooves	-9098
▁ticking	-9099
bbi	-9100
▁Bruno	-9101
▁builder	-9102
emon	-9103
▁gratefully	-9104
tled	-9105
▁cig	-9106
œWould	-9107
▁aroma	-9108
▁perfor	-9109
▁otherwise	-9110
▁disagreement	-9111
Nothing	-9112
▁swapped	-9113
▁Ratty	-9114
▁bellies	-9115
▁hatched	-9116
▁seriously	-9117
▁glistening	-9118
▁jing	-9119
▁strokes	-9120
▁CD	-9121
reya	-9122
▁booth	-9123
▁purch	-9124
▁movement	-9125
▁soda	-9126
▁shave	-9127
▁speaks	-9128
▁springing	-9129
▁robe	-9130
▁grump	-9131
▁Flutter	-9132
▁cigaret	-9133
▁challenges	-9134
▁theatre	-9135
▁lifeguard	-9136
▁absolutely	-9137
▁webs	-9138
▁Freya	-9139
▁quacks	-9140
▁Sitting	-9141
pan	-9142
hand	-9143
iana	-9144
▁Wolf	-9145
▁habit	-9146
▁possibilities	-9147
Moo	-9148
ssy	-9149
▁loads	-9150
▁interrupt	-9151
▁ench	-9152
▁admit	-9153
▁oceans	-9154
ics	-9155
▁Ye	-9156
▁Missy	-9157
▁persistence	-9158
ggles	-9159
iments	-9160
▁stalk	-9161
▁glanced	-9162
▁sniffled	-9163
oned	-9164
▁owls	-9165
▁Could	-9166
▁Robin	-9167
▁daily	-9168
▁lasted	-9169
▁bumping	-9170
▁capture	-9171
▁Ami	-9172
▁Mac	-9173
berry	-9174
▁Greg	-9175
▁bats	-9176
Friend	-9177
▁Johnâ	-9178
icent	-9179
▁Smoke	-9180
ost	-9181
▁lever	-9182
▁musicians	-9183
sitter	-9184
▁bathed	-9185
▁Pa	-9186
▁Jump	-9187
▁Nicky	-9188
▁blamed	-9189
▁smoothly	-9190
▁hoot	-9191
▁rinse	-9192
▁goggles	-9193
▁stirs	-9194
▁springtime	-9195
▁imaginations	-9196
▁Rick	-9197
▁pollen	-9198
▁desperately	-9199
▁Nurse	-9200
▁overfl	-9201
▁caution	-9202
aps	-9203
icking	-9204
▁desks	-9205
▁racer	-9206
▁floppy	-9207
Fire	-9208
▁Doctor	-9209
▁stains	-9210
▁uncovered	-9211
Only	-9212
▁Skip	-9213
▁nets	-9214
▁dolly	-9215
▁pounds	-9216
▁deciding	-9217
▁passenger	-9218
▁mesmerised	-9219
oga	-9220
▁Things	-9221
▁speaker	-9222
œAre	-9223
▁hooks	-9224
▁wrapper	-9225
▁stacking	-9226
▁folds	-9227
▁progress	-9228
▁priv	-9229
▁roamed	-9230
▁necessary	-9231
just	-9232
▁chili	-9233
▁messed	-9234
▁process	-9235
mate	-9236
▁wax	-9237
▁fulf	-9238
▁piled	-9239
▁cutest	-9240
▁introducing	-9241
▁recommendation	-9242
▁energ	-9243
▁hatch	-9244
▁parks	-9245
▁Pink	-9246
▁vinegar	-9247
onest	-9248
▁trim	-9249
▁Carly	-9250
▁cooed	-9251
▁fooled	-9252
▁desperate	-9253
▁disobeyed	-9254
omp	-9255
▁amongst	-9256
▁obediently	-9257
Jump	-9258
erts	-9259
onut	-9260
▁maps	-9261
ically	-9262
▁anten	-9263
▁pecks	-9264
▁undone	-9265
▁babysitter	-9266
▁Joseph	-9267
Daisy	-9268
▁champ	-9269
▁Bouncy	-9270
▁kinder	-9271
▁yummiest	-9272
▁Moon	-9273
fusion	-9274
▁chains	-9275
▁shooed	-9276
▁hovering	-9277
▁confusion	-9278
Baa	-9279
rons	-9280
▁hoses	-9281
▁kissing	-9282
▁desserts	-9283
▁magnificent	-9284
aste	-9285
▁aprons	-9286
▁purring	-9287
▁allergic	-9288
bed	-9289
▁clubs	-9290
▁dedic	-9291
▁Olly	-9292
▁Sean	-9293
▁gulped	-9294
▁date	-9295
▁laces	-9296
▁widely	-9297
▁coconut	-9298
▁alligators	-9299
▁differences	-9300
isbee	-9301
▁hadnâ	-9302
▁sleigh	-9303
▁hamster	-9304
▁instincts	-9305
umed	-9306
▁Years	-9307
keepers	-9308
▁swat	-9309
▁wanna	-9310
ani	-9311
mers	-9312
▁exhib	-9313
▁bundle	-9314
▁charged	-9315
▁greatest	-9316
▁cuc	-9317
▁ric	-9318
▁untangle	-9319
bs	-9320
▁unz	-9321
▁scut	-9322
▁rinsed	-9323
▁scratchy	-9324
▁Instantly	-9325
▁compromise	-9326
shirt	-9327
▁reflect	-9328
▁silently	-9329
▁coop	-9330
▁Father	-9331
▁comets	-9332
▁Lightning	-9333
▁ostriches	-9334
▁roller	-9335
▁nibbling	-9336
ellow	-9337
▁Gogo	-9338
▁valleys	-9339
▁Eve	-9340
▁Noah	-9341
▁Rory	-9342
▁army	-9343
▁bolt	-9344
▁cloths	-9345
▁doggie	-9346
▁lunchbox	-9347
Isn	-9348
▁ages	-9349
▁Faith	-9350
▁Which	-9351
▁drill	-9352
▁depths	-9353
▁headache	-9354
▁tempting	-9355
▁performers	-9356
▁doves	-9357
▁borrowing	-9358
form	-9359
aming	-9360
▁blur	-9361
▁files	-9362
▁crafts	-9363
▁gladly	-9364
▁halves	-9365
▁snoring	-9366
▁Muff	-9367
▁creak	-9368
▁squirted	-9369
dia	-9370
▁bait	-9371
▁rocky	-9372
she	-9373
▁learner	-9374
▁mustn	-9375
OO	-9376
▁lif	-9377
▁keen	-9378
▁Fay	-9379
▁hippos	-9380
▁unfold	-9381
acey	-9382
oors	-9383
▁lil	-9384
▁gummy	-9385
▁slurp	-9386
▁indoors	-9387
▁Otherwise	-9388
▁challenged	-9389
▁Ned	-9390
▁riddle	-9391
▁confidently	-9392
idi	-9393
▁croak	-9394
▁handy	-9395
▁gradually	-9396
▁Lydia	-9397
▁cluck	-9398
▁Billie	-9399
▁pizzas	-9400
▁Doug	-9401
▁Turn	-9402
▁scre	-9403
▁towns	-9404
▁Brother	-9405
?!	-9406
gr	-9407
of	-9408
los	-9409
andel	-9410
▁gooey	-9411
▁royal	-9412
▁rotted	-9413
▁Bea	-9414
▁Jelly	-9415
▁Panda	-9416
imbo	-9417
▁Pear	-9418
▁Rusty	-9419
▁escap	-9420
▁detect	-9421
▁softest	-9422
Aw	-9423
▁laws	-9424
▁retrie	-9425
▁Puddles	-9426
▁shoelaces	-9427
aroni	-9428
rings	-9429
▁bloss	-9430
▁stings	-9431
▁galloped	-9432
▁toppings	-9433
▁appearance	-9434
▁Hi	-9435
ousy	-9436
▁Bug	-9437
▁Tri	-9438
▁Books	-9439
orse	-9440
▁flavour	-9441
Bless	-9442
œWill	-9443
▁tiring	-9444
Ooh	-9445
▁sends	-9446
▁steered	-9447
zing	-9448
▁Clean	-9449
▁ass	-9450
▁Though	-9451
▁sinking	-9452
▁tastiest	-9453
▁echo	-9454
▁Piggy	-9455
▁Raven	-9456
▁unicorns	-9457
ongratulations	-9458
fived	-9459
▁enjoys	-9460
▁overhe	-9461
hh	-9462
inner	-9463
losure	-9464
▁Grumpy	-9465
▁freely	-9466
▁enclosure	-9467
▁Cro	-9468
▁Fran	-9469
▁Play	-9470
▁host	-9471
▁science	-9472
▁peacefulness	-9473
izza	-9474
▁boyâ	-9475
▁scrubbing	-9476
▁globe	-9477
▁route	-9478
▁boiled	-9479
▁hovered	-9480
▁hare	-9481
▁Black	-9482
▁Biggie	-9483
▁crushed	-9484
▁sparrow	-9485
▁automobiles	-9486
why	-9487
▁Too	-9488
▁niece	-9489
▁brakes	-9490
▁carton	-9491
▁pecking	-9492
▁rooster	-9493
ality	-9494
arning	-9495
▁hates	-9496
▁guesses	-9497
▁earrings	-9498
▁scrunched	-9499
good	-9500
▁Lucyâ	-9501
▁gorge	-9502
▁risky	-9503
▁mashed	-9504
▁occasions	-9505
▁beeping	-9506
aly	-9507
nda	-9508
▁Boy	-9509
▁lur	-9510
▁dumb	-9511
▁Jimbo	-9512
▁fluff	-9513
▁lilies	-9514
▁stacks	-9515
ki	-9516
▁Del	-9517
▁leaped	-9518
▁lightly	-9519
cr	-9520
cloth	-9521
▁Mousy	-9522
▁whizz	-9523
▁Tia	-9524
▁god	-9525
▁fuss	-9526
▁Steph	-9527
▁ashes	-9528
▁Muffin	-9529
umn	-9530
Guess	-9531
▁fail	-9532
▁Wisdom	-9533
▁dusted	-9534
▁hunger	-9535
▁snuggling	-9536
▁plumber	-9537
▁winners	-9538
▁pounding	-9539
▁restoring	-9540
elve	-9541
▁Tay	-9542
▁drip	-9543
▁taps	-9544
▁swoop	-9545
▁feathered	-9546
▁organised	-9547
▁fashionable	-9548
▁stinky	-9549
▁gorgeous	-9550
▁rider	-9551
▁deserves	-9552
▁macaroni	-9553
▁Sid	-9554
▁dripped	-9555
▁shortcut	-9556
▁Chew	-9557
▁lonel	-9558
▁regularly	-9559
Playing	-9560
▁stroller	-9561
▁department	-9562
▁Mic	-9563
▁Marg	-9564
▁whines	-9565
▁halfway	-9566
▁softness	-9567
▁whiskers	-9568
urple	-9569
▁Tell	-9570
▁plat	-9571
▁tents	-9572
▁scores	-9573
▁builders	-9574
▁carefree	-9575
can	-9576
▁venture	-9577
▁Bar	-9578
▁Turt	-9579
▁slight	-9580
▁horrible	-9581
▁platform	-9582
▁helicopters	-9583
look	-9584
▁Res	-9585
eng	-9586
▁Dee	-9587
▁handleb	-9588
▁Caroline	-9589
▁Rel	-9590
œMummy	-9591
▁peeks	-9592
working	-9593
udrey	-9594
▁petal	-9595
▁woken	-9596
▁descri	-9597
▁listener	-9598
▁mischief	-9599
asper	-9600
▁Mint	-9601
▁fanc	-9602
▁guided	-9603
▁ordering	-9604
▁brightened	-9605
œGo	-9606
▁Find	-9607
▁leng	-9608
▁suck	-9609
che	-9610
▁App	-9611
▁mur	-9612
▁nug	-9613
Jenny	-9614
anish	-9615
▁fans	-9616
▁rags	-9617
▁shaky	-9618
▁Nature	-9619
▁ladybird	-9620
▁snowflake	-9621
kind	-9622
▁Audrey	-9623
▁lantern	-9624
▁nations	-9625
▁Dina	-9626
aving	-9627
▁rods	-9628
▁dives	-9629
▁Willie	-9630
▁phones	-9631
▁majestic	-9632
▁nightstand	-9633
▁Cow	-9634
creams	-9635
▁Heidi	-9636
▁handles	-9637
orth	-9638
▁shots	-9639
▁access	-9640
▁pearls	-9641
urrender	-9642
▁scowled	-9643
▁zookeepers	-9644
▁information	-9645
appy	-9646
▁invol	-9647
▁furious	-9648
▁Joanne	-9649
▁quarrell	-9650
ira	-9651
▁Wow	-9652
▁aid	-9653
illas	-9654
inema	-9655
▁carn	-9656
▁mats	-9657
▁Want	-9658
isible	-9659
▁unlocking	-9660
▁honeycom	-9661
ridge	-9662
▁actors	-9663
▁community	-9664
etah	-9665
▁overheard	-9666
▁displaying	-9667
▁exercising	-9668
▁slot	-9669
▁devast	-9670
▁rightful	-9671
▁invisible	-9672
Mag	-9673
aron	-9674
ously	-9675
▁Toys	-9676
▁Wiggly	-9677
▁cinema	-9678
▁sweetness	-9679
ilar	-9680
field	-9681
orious	-9682
cellent	-9683
▁Squeak	-9684
▁Johnnie	-9685
▁tongues	-9686
book	-9687
▁Pop	-9688
▁Down	-9689
▁Puppy	-9690
▁squawk	-9691
▁Gail	-9692
▁praise	-9693
▁proved	-9694
▁twelve	-9695
▁cheetah	-9696
▁Susy	-9697
▁soul	-9698
▁Jemma	-9699
▁palms	-9700
▁Taylor	-9701
▁nudged	-9702
ssssssss	-9703
œP	-9704
Itâ	-9705
shes	-9706
▁Son	-9707
▁boarded	-9708
▁Isabella	-9709
rit	-9710
▁poop	-9711
▁beaks	-9712
▁state	-9713
▁heights	-9714
▁lighting	-9715
'."	-9716
tock	-9717
▁glows	-9718
▁Willow	-9719
▁Matty	-9720
▁mound	-9721
▁fences	-9722
▁ribbit	-9723
▁competing	-9724
▁contained	-9725
▁devastated	-9726
▁Marcy	-9727
▁untangled	-9728
▁dedication	-9729
▁Du	-9730
▁Gert	-9731
▁mend	-9732
▁panting	-9733
▁striking	-9734
▁Old	-9735
clock	-9736
▁caves	-9737
▁Bernie	-9738
▁dining	-9739
▁frightening	-9740
▁complimented	-9741
▁damp	-9742
▁pads	-9743
▁tend	-9744
▁entering	-9745
▁funniest	-9746
▁lakes	-9747
▁anybody	-9748
▁enchanted	-9749
mosp	-9750
shop	-9751
Enjoy	-9752
▁atmosp	-9753
▁possess	-9754
▁atmosphere	-9755
▁peels	-9756
▁Roar	-9757
▁champion	-9758
▁servants	-9759
ooh	-9760
▁gle	-9761
▁offers	-9762
▁chooses	-9763
▁farthest	-9764
▁exist	-9765
▁values	-9766
▁shimmered	-9767
ders	-9768
▁vol	-9769
▁Alexa	-9770
▁Ostri	-9771
▁Chicky	-9772
▁threads	-9773
▁trailer	-9774
▁batch	-9775
▁mushy	-9776
▁solid	-9777
▁service	-9778
▁ducklings	-9779
▁caf	-9780
▁priest	-9781
▁nuggets	-9782
▁Ni	-9783
▁Ron	-9784
▁Greta	-9785
▁totally	-9786
▁carnival	-9787
ousel	-9788
▁Mara	-9789
▁pairs	-9790
▁spice	-9791
▁pancake	-9792
▁managing	-9793
ggie	-9794
▁farms	-9795
▁Copper	-9796
▁fiercely	-9797
rem	-9798
▁Ot	-9799
sorry	-9800
▁crispy	-9801
▁backward	-9802
▁Fore	-9803
▁sleeve	-9804
▁carousel	-9805
seed	-9806
ingly	-9807
▁dips	-9808
▁Pearl	-9809
▁tanks	-9810
▁gorillas	-9811
▁pace	-9812
▁rumbled	-9813
▁weights	-9814
▁presence	-9815
▁Roy	-9816
▁deck	-9817
▁vacu	-9818
▁Timothy	-9819
▁antlers	-9820
▁blessed	-9821
▁whether	-9822
▁squawked	-9823
asy	-9824
wood	-9825
tured	-9826
▁plank	-9827
▁twirls	-9828
▁rea	-9829
▁snip	-9830
▁Alfie	-9831
▁lasers	-9832
▁popsicle	-9833
yd	-9834
bly	-9835
▁sizz	-9836
▁Bailey	-9837
▁exhibit	-9838
▁spirits	-9839
▁birdseed	-9840
▁suspicious	-9841
Ice	-9842
believe	-9843
▁Shadow	-9844
▁obl	-9845
▁vests	-9846
▁smoother	-9847
iet	-9848
▁shuff	-9849
▁winks	-9850
▁length	-9851
▁Sundays	-9852
▁energized	-9853
dog	-9854
▁camps	-9855
▁parking	-9856
œMe	-9857
œWait	-9858
inting	-9859
▁frisbee	-9860
▁subject	-9861
▁twitched	-9862
▁correct	-9863
▁reality	-9864
▁considerate	-9865
▁atop	-9866
▁oars	-9867
eading	-9868
▁Ellen	-9869
▁commotion	-9870
▁threatened	-9871
elsey	-9872
▁loos	-9873
itcher	-9874
▁cerem	-9875
▁skips	-9876
▁tripping	-9877
▁sunb	-9878
▁birdâ	-9879
▁wrecked	-9880
▁attaching	-9881
▁handlebars	-9882
▁practising	-9883
▁Goldie	-9884
▁homeless	-9885
▁Rosy	-9886
▁grandk	-9887
▁designer	-9888
▁Geor	-9889
▁ripples	-9890
ical	-9891
mbur	-9892
rice	-9893
▁wig	-9894
▁Stret	-9895
▁Alison	-9896
▁skinny	-9897
▁ceremony	-9898
▁sickness	-9899
▁solutions	-9900
▁delightful	-9901
Whoa	-9902
▁Stu	-9903
▁Bree	-9904
▁Yoga	-9905
▁sells	-9906
▁elders	-9907
▁scrape	-9908
▁nestled	-9909
▁seeking	-9910
eat	-9911
▁Af	-9912
▁Isla	-9913
▁hind	-9914
▁reck	-9915
▁wadd	-9916
▁suggests	-9917
Everything	-9918
▁hambur	-9919
Jen	-9920
issy	-9921
thur	-9922
eline	-9923
▁calf	-9924
▁huff	-9925
▁spied	-9926
▁grumble	-9927
▁addition	-9928
▁contents	-9929
▁workshop	-9930
▁studies	-9931
▁swirled	-9932
▁chattered	-9933
▁loneliness	-9934
▁fif	-9935
▁hoof	-9936
▁Flash	-9937
▁Stand	-9938
▁Thunder	-9939
▁purchase	-9940
eller	-9941
▁online	-9942
▁gliding	-9943
▁Confused	-9944
▁clothing	-9945
▁supermark	-9946
ya	-9947
▁Cars	-9948
▁tink	-9949
ousand	-9950
▁runny	-9951
▁urging	-9952
aya	-9953
▁Nia	-9954
icated	-9955
▁Turtle	-9956
▁launch	-9957
▁Wherever	-9958
▁honeycomb	-9959
▁supplying	-9960
▁supermarket	-9961
▁Sil	-9962
dream	-9963
▁cooks	-9964
▁speck	-9965
▁neighed	-9966
▁reckless	-9967
▁sneaking	-9968
Emma	-9969
▁Paws	-9970
▁cruel	-9971
▁Carrie	-9972
▁Anytime	-9973
▁campsite	-9974
▁injuries	-9975
▁Arthur	-9976
▁patients	-9977
ann	-9978
▁trunks	-9979
▁yuck	-9980
▁aback	-9981
▁droop	-9982
▁polka	-9983
▁antenna	-9984
▁bounded	-9985
▁freshly	-9986
▁stained	-9987
▁Wilma	-9988
▁Nibbles	-9989
▁avoided	-9990
▁dustpan	-9991
▁swirling	-9992
ylan	-9993
▁squish	-9994
▁pitcher	-9995
▁porridge	-9996
aper	-9997
wing	-9998
▁Run	-9999
Sweet	-10000
▁Chip	-10001
▁unst	-10002
▁Laure	-10003
▁exams	-10004
▁scaly	-10005
▁lurking	-10006
▁pudding	-10007
▁Mus	-10008
▁Oak	-10009
ooked	-10010
▁Ping	-10011
Ribbit	-10012
▁Gilly	-10013
▁darted	-10014
▁Justin	-10015
▁possession	-10016
▁Mole	-10017
Friends	-10018
▁horror	-10019
▁tumbling	-10020
▁inno	-10021
▁blame	-10022
▁buckles	-10023
▁painful	-10024
▁gardening	-10025
▁Lex	-10026
▁Jun	-10027
▁Wise	-10028
▁Dylan	-10029
▁Layla	-10030
▁desce	-10031
▁Albert	-10032
▁holidays	-10033
Make	-10034
▁clips	-10035
▁meets	-10036
▁tours	-10037
▁tingle	-10038
▁projects	-10039
Rain	-10040
▁voy	-10041
▁Open	-10042
▁Crusty	-10043
▁attendant	-10044
▁Friendship	-10045
▁Scr	-10046
Mittens	-10047
▁daydream	-10048
Lisa	-10049
▁pals	-10050
▁aband	-10051
▁Paw	-10052
▁vast	-10053
▁Sarahâ	-10054
▁marvel	-10055
▁dodging	-10056
▁recipes	-10057
▁snowing	-10058
▁resisting	-10059
œHere	-10060
▁White	-10061
▁hurtful	-10062
▁hammering	-10063
saw	-10064
▁Ivy	-10065
▁toad	-10066
▁carve	-10067
▁fully	-10068
▁raked	-10069
uttered	-10070
▁knitting	-10071
▁massages	-10072
▁reaction	-10073
use	-10074
▁dandel	-10075
▁wicked	-10076
▁Ostrich	-10077
▁erasers	-10078
od	-10079
Leo	-10080
▁div	-10081
ustrated	-10082
▁Monster	-10083
▁disagreeing	-10084
made	-10085
▁Cher	-10086
▁perse	-10087
▁stormy	-10088
▁Margaret	-10089
▁thousand	-10090
œMum	-10091
▁ris	-10092
▁hairs	-10093
▁anyways	-10094
œC	-10095
Should	-10096
▁Jolly	-10097
▁scree	-10098
▁wetter	-10099
▁explode	-10100
▁grandkids	-10101
ils	-10102
icia	-10103
▁ray	-10104
œJohn	-10105
▁Rani	-10106
▁buys	-10107
▁Nelly	-10108
▁tightened	-10109
▁Pig	-10110
ushes	-10111
▁Duke	-10112
▁code	-10113
▁Cheese	-10114
▁wobbles	-10115
▁grasp	-10116
▁squirmed	-10117
isher	-10118
▁Faye	-10119
▁tone	-10120
▁Yellow	-10121
▁speedy	-10122
▁streams	-10123
▁clutched	-10124
▁forwards	-10125
▁disappears	-10126
▁possessions	-10127
arled	-10128
▁suitcases	-10129
peck	-10130
▁Cuddles	-10131
▁slightly	-10132
▁Frustrated	-10133
▁Most	-10134
▁Snap	-10135
▁Eating	-10136
▁cooper	-10137
▁dumped	-10138
▁guitars	-10139
▁islands	-10140
Bu	-10141
aids	-10142
▁Chess	-10143
▁Flappy	-10144
▁Lauren	-10145
▁Imagine	-10146
▁disgusted	-10147
▁sax	-10148
Sleep	-10149
ildren	-10150
▁Janice	-10151
▁Working	-10152
▁arrange	-10153
œRemember	-10154
▁pedalled	-10155
colate	-10156
▁Gerry	-10157
▁armor	-10158
▁soggy	-10159
▁racers	-10160
▁voyage	-10161
▁winking	-10162
Something	-10163
▁Petey	-10164
▁potty	-10165
▁Purple	-10166
▁constr	-10167
▁spoken	-10168
▁villain	-10169
▁performer	-10170
From	-10171
▁sim	-10172
tling	-10173
▁Last	-10174
istened	-10175
▁hideout	-10176
okay	-10177
Beware	-10178
▁stiff	-10179
▁settling	-10180
▁Afric	-10181
▁owning	-10182
▁Charles	-10183
▁streaming	-10184
▁raises	-10185
▁rink	-10186
▁Shark	-10187
▁begun	-10188
▁puffed	-10189
▁discussion	-10190
gra	-10191
▁sly	-10192
▁blob	-10193
▁unkind	-10194
ryst	-10195
▁reel	-10196
▁sheâ	-10197
▁Fishy	-10198
▁gruff	-10199
▁Orange	-10200
▁grandchildren	-10201
gre	-10202
▁gn	-10203
atic	-10204
itam	-10205
▁tutu	-10206
▁glistened	-10207
▁scientists	-10208
▁sculptures	-10209
▁More	-10210
▁device	-10211
Everyone	-10212
▁stomachs	-10213
▁howl	-10214
ateful	-10215
▁granny	-10216
▁riches	-10217
œBecause	-10218
▁glimmer	-10219
▁surrounding	-10220
▁Doll	-10221
▁adop	-10222
▁carved	-10223
▁studio	-10224
▁toothp	-10225
▁obstacles	-10226
▁Sa	-10227
▁Whist	-10228
▁tales	-10229
▁woodpeck	-10230
▁Pee	-10231
▁Wal	-10232
▁adv	-10233
riting	-10234
▁Jumpy	-10235
▁unload	-10236
smelling	-10237
▁quicker	-10238
Hoor	-10239
▁Den	-10240
▁Yet	-10241
jamin	-10242
▁pave	-10243
Hooray	-10244
▁litter	-10245
▁rustle	-10246
▁embrace	-10247
▁parrots	-10248
▁contentment	-10249
▁assist	-10250
▁scooping	-10251
ika	-10252
▁Bop	-10253
▁Hal	-10254
▁Cass	-10255
▁adventurers	-10256
▁vitam	-10257
▁floaty	-10258
▁Mix	-10259
▁Miles	-10260
▁acrob	-10261
▁capes	-10262
▁awa	-10263
▁Dora	-10264
▁Lexi	-10265
▁pavement	-10266
▁Surprised	-10267
▁connection	-10268
▁trad	-10269
▁persu	-10270
▁ruled	-10271
▁autumn	-10272
▁musical	-10273
▁showers	-10274
▁snarled	-10275
▁Benjamin	-10276
▁protector	-10277
▁Respect	-10278
▁Ada	-10279
apple	-10280
nings	-10281
▁lumpy	-10282
▁yawns	-10283
▁arrested	-10284
▁pref	-10285
▁unlike	-10286
▁Furry	-10287
▁interrupted	-10288
▁Gu	-10289
ressed	-10290
▁Scott	-10291
▁jeans	-10292
▁shame	-10293
▁chirps	-10294
▁passion	-10295
▁refusing	-10296
▁steaming	-10297
NG	-10298
▁Lo	-10299
ants	-10300
rystal	-10301
▁mixes	-10302
▁resour	-10303
▁reappear	-10304
▁Ball	-10305
▁Diana	-10306
▁explan	-10307
▁payoff	-10308
▁saddle	-10309
▁equally	-10310
udge	-10311
▁hammered	-10312
▁lovingly	-10313
res	-10314
reet	-10315
▁creepy	-10316
▁jogger	-10317
▁Spanish	-10318
Wake	-10319
œHelp	-10320
▁begs	-10321
▁sauc	-10322
▁drople	-10323
▁produc	-10324
▁scolding	-10325
▁woodpecker	-10326
▁thoughtfully	-10327
Snow	-10328
▁Mild	-10329
▁jigg	-10330
▁Angie	-10331
▁Birds	-10332
▁nightfall	-10333
▁respecting	-10334
don	-10335
hocolate	-10336
▁tingling	-10337
Trust	-10338
▁bould	-10339
hearted	-10340
▁Bethany	-10341
▁mailing	-10342
▁godmother	-10343
▁scribbled	-10344
▁Butt	-10345
▁Lady	-10346
▁jaws	-10347
▁whim	-10348
▁bobbed	-10349
▁abandoned	-10350
hoe	-10351
▁Ev	-10352
▁prof	-10353
▁poles	-10354
▁patting	-10355
▁terribly	-10356
acher	-10357
remely	-10358
▁curves	-10359
▁witches	-10360
▁Cleaning	-10361
.'"	-10362
▁pec	-10363
▁fare	-10364
▁braid	-10365
▁double	-10366
▁Melody	-10367
▁extremely	-10368
▁Dis	-10369
▁Otto	-10370
▁limp	-10371
▁Ernie	-10372
▁shields	-10373
▁trudged	-10374
▁exchanged	-10375
▁Int	-10376
▁wil	-10377
▁undo	-10378
▁quizz	-10379
▁instant	-10380
▁ruffled	-10381
Mary	-10382
▁chees	-10383
▁misty	-10384
▁prefer	-10385
▁juggling	-10386
▁missiles	-10387
▁accepting	-10388
ico	-10389
▁carts	-10390
▁spades	-10391
▁charity	-10392
▁stretchy	-10393
▁independence	-10394
ior	-10395
away	-10396
▁Close	-10397
▁appet	-10398
▁friendâ	-10399
▁sweeping	-10400
abeth	-10401
▁pinec	-10402
▁signal	-10403
▁Cookies	-10404
▁zippers	-10405
▁escaping	-10406
hi	-10407
cup	-10408
▁Hugo	-10409
▁Much	-10410
▁Spirit	-10411
▁Reading	-10412
▁whimper	-10413
▁zigzags	-10414
▁Elizabeth	-10415
▁oo	-10416
lock	-10417
▁confu	-10418
▁somehow	-10419
▁captured	-10420
▁splitting	-10421
▁succeeding	-10422
nis	-10423
Wheee	-10424
etime	-10425
▁stares	-10426
▁Manny	-10427
Sharing	-10428
▁birdies	-10429
Bird	-10430
friend	-10431
solved	-10432
▁clung	-10433
▁prison	-10434
▁harmful	-10435
▁stomping	-10436
▁unloaded	-10437
▁invention	-10438
▁saxophone	-10439
att	-10440
▁Boom	-10441
▁lens	-10442
▁wiggles	-10443
riet	-10444
▁tul	-10445
Silly	-10446
uliar	-10447
▁roam	-10448
giving	-10449
▁Climb	-10450
▁Percy	-10451
▁chewy	-10452
▁peculiar	-10453
lla	-10454
oes	-10455
Shoo	-10456
▁dim	-10457
▁suns	-10458
▁taco	-10459
▁goods	-10460
▁theyâ	-10461
▁tucks	-10462
▁events	-10463
▁journeyed	-10464
nds	-10465
acul	-10466
▁Animal	-10467
▁jumper	-10468
▁sharpen	-10469
▁lectures	-10470
▁strummed	-10471
▁complicated	-10472
▁explanation	-10473
irty	-10474
▁Brave	-10475
▁Africa	-10476
▁Monica	-10477
▁grains	-10478
▁Richard	-10479
▁carriage	-10480
▁lifetime	-10481
▁favorites	-10482
ddies	-10483
▁flyer	-10484
▁guilt	-10485
Got	-10486
▁py	-10487
▁remo	-10488
▁Nellie	-10489
▁joyous	-10490
▁kindest	-10491
▁pendant	-10492
▁proceed	-10493
rope	-10494
▁wond	-10495
filled	-10496
▁buddies	-10497
▁strikes	-10498
▁snuggles	-10499
Hop	-10500
Two	-10501
▁curve	-10502
▁perch	-10503
▁Sister	-10504
▁motioned	-10505
▁protects	-10506
▁requests	-10507
▁fishermen	-10508
▁mustaches	-10509
Eww	-10510
vey	-10511
umph	-10512
▁Lilyâ	-10513
▁Maxine	-10514
▁compare	-10515
▁motions	-10516
▁volcanoes	-10517
▁accidently	-10518
Climb	-10519
▁Erin	-10520
▁West	-10521
▁Jules	-10522
▁views	-10523
▁richer	-10524
▁panicking	-10525
upid	-10526
▁combs	-10527
▁melts	-10528
▁Jasper	-10529
▁Nathan	-10530
▁quizzes	-10531
▁quarrelling	-10532
imba	-10533
reck	-10534
▁wit	-10535
▁gloom	-10536
▁wrinkly	-10537
▁raincoats	-10538
▁rect	-10539
▁Peace	-10540
▁Dragon	-10541
▁sneakers	-10542
▁Afterward	-10543
▁concentrated	-10544
ows	-10545
▁Gia	-10546
▁blush	-10547
▁dries	-10548
▁subjects	-10549
▁wriggling	-10550
isty	-10551
▁Piper	-10552
▁Angela	-10553
▁reassuring	-10554
Mmmm	-10555
▁Mor	-10556
▁Nat	-10557
▁craz	-10558
▁defend	-10559
▁Mister	-10560
▁chicks	-10561
▁squashes	-10562
▁abilities	-10563
More	-10564
▁zig	-10565
unted	-10566
▁Marty	-10567
▁Strip	-10568
▁kneels	-10569
▁appears	-10570
▁notices	-10571
▁posters	-10572
▁birthdays	-10573
▁separating	-10574
▁concentrate	-10575
ald	-10576
pled	-10577
▁Past	-10578
▁lobby	-10579
▁cables	-10580
▁strict	-10581
▁crosses	-10582
▁droplets	-10583
▁wrappers	-10584
▁Stephanie	-10585
▁stretcher	-10586
▁supportive	-10587
▁conversations	-10588
Co	-10589
war	-10590
Magic	-10591
▁chunk	-10592
▁destr	-10593
▁clover	-10594
▁spelling	-10595
œStop	-10596
▁orch	-10597
▁glimp	-10598
▁bleeds	-10599
▁hopeless	-10600
▁shouldnâ	-10601
▁waitress	-10602
areful	-10603
▁shades	-10604
▁ladders	-10605
▁grinning	-10606
tiv	-10607
Blue	-10608
▁Pup	-10609
▁pail	-10610
▁Blink	-10611
▁bands	-10612
▁curved	-10613
▁dialed	-10614
▁Neither	-10615
▁striped	-10616
omers	-10617
▁banks	-10618
▁sealed	-10619
▁Singing	-10620
stop	-10621
atted	-10622
▁Simba	-10623
▁fading	-10624
▁scuttled	-10625
▁crunching	-10626
▁strolling	-10627
▁tightrope	-10628
▁Di	-10629
haps	-10630
▁captiv	-10631
▁flowed	-10632
▁imagin	-10633
▁approval	-10634
▁flippers	-10635
▁hurrying	-10636
▁unfolded	-10637
'?"	-10638
ential	-10639
▁North	-10640
▁stems	-10641
▁numbered	-10642
▁cigarette	-10643
▁importantly	-10644
œB	-10645
Mark	-10646
▁rais	-10647
▁scooted	-10648
▁moderation	-10649
rop	-10650
iddy	-10651
▁Anya	-10652
▁Catty	-10653
▁Marcus	-10654
▁flakes	-10655
▁juggle	-10656
Whenever	-10657
▁sandals	-10658
▁stitched	-10659
ram	-10660
sery	-10661
innam	-10662
smart	-10663
innamon	-10664
▁stripe	-10665
▁detective	-10666
▁overflowing	-10667
ilst	-10668
Close	-10669
œMama	-10670
▁Ruff	-10671
▁site	-10672
▁Shall	-10673
▁warming	-10674
▁ec	-10675
Move	-10676
▁Ske	-10677
▁dodge	-10678
▁desire	-10679
net	-10680
▁Toni	-10681
▁mitt	-10682
▁photog	-10683
▁squirt	-10684
▁boulder	-10685
▁pickles	-10686
▁biscuits	-10687
?,"	-10688
▁Music	-10689
▁outer	-10690
▁nursery	-10691
▁playfully	-10692
▁Jade	-10693
▁dazz	-10694
▁Juice	-10695
berries	-10696
▁Spider	-10697
▁cinnamon	-10698
▁proceeded	-10699
▁cul	-10700
Thatâ	-10701
Shrink	-10702
coming	-10703
▁curls	-10704
▁lamps	-10705
▁Daisyâ	-10706
▁Should	-10707
▁aisles	-10708
▁bruise	-10709
▁fourth	-10710
▁clucked	-10711
▁rustled	-10712
▁announce	-10713
▁shuffled	-10714
Cat	-10715
ada	-10716
xie	-10717
eyed	-10718
▁Gen	-10719
helle	-10720
▁leaping	-10721
▁vitamins	-10722
▁grumbling	-10723
▁Roo	-10724
▁Barn	-10725
▁Tomâ	-10726
▁newly	-10727
▁dodges	-10728
▁forced	-10729
▁somers	-10730
▁repairs	-10731
▁grownups	-10732
▁training	-10733
▁somersaul	-10734
▁friendships	-10735
Dog	-10736
▁Ding	-10737
▁envy	-10738
▁weed	-10739
static	-10740
▁Three	-10741
▁setup	-10742
▁stump	-10743
▁report	-10744
▁farewell	-10745
phew	-10746
▁ups	-10747
▁boomed	-10748
▁giants	-10749
▁inched	-10750
▁seated	-10751
▁snatch	-10752
▁stalks	-10753
▁thirst	-10754
œIs	-10755
oris	-10756
▁empt	-10757
▁limits	-10758
▁nephew	-10759
▁chugged	-10760
▁hammers	-10761
▁Anything	-10762
▁contentedly	-10763
car	-10764
Right	-10765
▁rejo	-10766
▁Goose	-10767
▁fists	-10768
▁outing	-10769
▁sleeves	-10770
▁tiptoes	-10771
▁firewood	-10772
Jim	-10773
▁bled	-10774
▁trails	-10775
▁culture	-10776
▁timidly	-10777
▁switches	-10778
bec	-10779
aved	-10780
▁Paige	-10781
▁loser	-10782
▁lowers	-10783
▁hardworking	-10784
▁balc	-10785
▁unsc	-10786
▁Emmie	-10787
▁Small	-10788
▁postc	-10789
▁Skelly	-10790
▁frames	-10791
▁salads	-10792
▁snipped	-10793
▁stunning	-10794
▁excellent	-10795
Mar	-10796
▁Janeâ	-10797
▁nanny	-10798
▁thinner	-10799
▁inspected	-10800
May	-10801
ume	-10802
▁tang	-10803
▁cheesy	-10804
▁bobbing	-10805
▁Michelle	-10806
▁descended	-10807
udy	-10808
rous	-10809
œyou	-10810
▁Crab	-10811
▁spee	-10812
▁layer	-10813
▁stunned	-10814
nderneath	-10815
▁ecstatic	-10816
▁Gradually	-10817
▁sleepover	-10818
ylv	-10819
igher	-10820
vious	-10821
▁jogs	-10822
itters	-10823
▁Dizzy	-10824
▁cities	-10825
▁otherâ	-10826
▁blossom	-10827
▁witness	-10828
▁obstacle	-10829
Ann	-10830
▁Jem	-10831
▁Pol	-10832
aylee	-10833
erris	-10834
œJust	-10835
▁rises	-10836
▁Edward	-10837
▁Stretch	-10838
▁fitting	-10839
▁paramed	-10840
▁surrendering	-10841
▁guid	-10842
▁ogre	-10843
▁bangs	-10844
▁elder	-10845
▁behold	-10846
▁loosen	-10847
▁begging	-10848
▁command	-10849
▁targets	-10850
▁triumph	-10851
▁guidance	-10852
▁fulfilled	-10853
mon	-10854
▁Bro	-10855
▁Land	-10856
▁doub	-10857
▁boast	-10858
▁deeds	-10859
▁drags	-10860
▁speech	-10861
▁staircase	-10862
▁surprisingly	-10863
ute	-10864
epeat	-10865
▁sele	-10866
▁Ginny	-10867
▁Crystal	-10868
▁combing	-10869
▁clothesline	-10870
po	-10871
vo	-10872
▁Moe	-10873
▁Amaz	-10874
▁Theo	-10875
œDaddy	-10876
▁tiara	-10877
▁orchard	-10878
▁antennae	-10879
▁wondrous	-10880
▁experiments	-10881
!,"	-10882
aken	-10883
▁Roxy	-10884
▁Sylv	-10885
▁reader	-10886
▁tickly	-10887
hab	-10888
abby	-10889
mill	-10890
ashing	-10891
▁Doing	-10892
▁Barney	-10893
▁cleare	-10894
▁guarded	-10895
▁confusing	-10896
RA	-10897
▁misbe	-10898
▁pounce	-10899
▁leopards	-10900
▁pineapple	-10901
alia	-10902
stack	-10903
▁Bees	-10904
▁None	-10905
▁exact	-10906
isingly	-10907
▁Bright	-10908
▁barbec	-10909
▁balcony	-10910
▁skating	-10911
▁wobbling	-10912
▁anxiously	-10913
▁Amen	-10914
aitlyn	-10915
▁ballet	-10916
▁squeal	-10917
▁Believe	-10918
▁resumed	-10919
▁Bel	-10920
▁cha	-10921
Alice	-10922
▁Burt	-10923
▁Samâ	-10924
▁snoo	-10925
▁Count	-10926
▁salsa	-10927
▁cursed	-10928
▁pastor	-10929
▁cracking	-10930
▁shoreline	-10931
▁Eat	-10932
▁crust	-10933
▁smash	-10934
▁arrives	-10935
▁greater	-10936
▁options	-10937
▁partner	-10938
▁stylish	-10939
▁acrobats	-10940
▁outsmart	-10941
▁gal	-10942
▁whoo	-10943
▁Beary	-10944
▁Mason	-10945
▁disob	-10946
▁wrists	-10947
▁roasted	-10948
▁brighten	-10949
▁securely	-10950
▁plow	-10951
istory	-10952
▁tippy	-10953
▁vacuum	-10954
▁promising	-10955
▁tablecloth	-10956
Say	-10957
cies	-10958
Whatâ	-10959
▁stray	-10960
▁Mollie	-10961
▁lawyers	-10962
▁turkeys	-10963
▁unh	-10964
▁Park	-10965
▁kill	-10966
▁Cloud	-10967
▁Cream	-10968
▁Hours	-10969
▁Stacy	-10970
▁prices	-10971
▁delaying	-10972
Ble	-10973
pie	-10974
dest	-10975
hoebe	-10976
▁sicker	-10977
▁shimmer	-10978
▁background	-10979
▁captivated	-10980
▁woo	-10981
annah	-10982
aries	-10983
▁props	-10984
▁Carlos	-10985
▁heated	-10986
▁replacing	-10987
▁toothpaste	-10988
anky	-10989
▁Phoebe	-10990
▁Grandad	-10991
▁folders	-10992
▁flavours	-10993
▁smoothie	-10994
▁adventurer	-10995
▁emergencies	-10996
▁Surprisingly	-10997
▁tran	-10998
▁Barky	-10999
▁sprung	-11000
▁barrels	-11001
▁recovered	-11002
wow	-11003
arked	-11004
▁tack	-11005
▁Prune	-11006
▁fixes	-11007
venture	-11008
▁Gertie	-11009
▁ironing	-11010
▁pricked	-11011
▁fanciest	-11012
▁cucumbers	-11013
▁glimmered	-11014
▁releasing	-11015
▁Thanksgiving	-11016
▁chann	-11017
iversity	-11018
▁railing	-11019
ks	-11020
itive	-11021
▁Beat	-11022
▁Louie	-11023
▁Mindy	-11024
▁honor	-11025
▁smoky	-11026
▁Juliet	-11027
▁lately	-11028
▁Stephen	-11029
▁yielding	-11030
wed	-11031
▁Bubble	-11032
▁skates	-11033
▁praises	-11034
▁remains	-11035
Blech	-11036
▁rasp	-11037
▁Alicia	-11038
▁detail	-11039
▁Harriet	-11040
▁Jackson	-11041
▁collage	-11042
▁records	-11043
▁destruction	-11044
▁plun	-11045
▁Silver	-11046
▁Tuesdays	-11047
▁squatted	-11048
▁infection	-11049
▁earthquakes	-11050
Three	-11051
anked	-11052
▁Sugar	-11053
▁cords	-11054
▁urges	-11055
▁howling	-11056
▁outcome	-11057
▁placing	-11058
▁springs	-11059
▁flashlights	-11060
iant	-11061
▁Mack	-11062
▁scan	-11063
▁Carrot	-11064
▁ducked	-11065
▁shrimps	-11066
▁cornfield	-11067
▁slithering	-11068
▁foreshadowed	-11069
Sl	-11070
Fly	-11071
▁bills	-11072
▁innocent	-11073
Ahh	-11074
althy	-11075
indness	-11076
▁blurry	-11077
▁Melanie	-11078
▁crooked	-11079
ruck	-11080
▁Joeâ	-11081
▁gobl	-11082
▁ponyt	-11083
▁perked	-11084
▁Wiggles	-11085
▁classes	-11086
▁glimpse	-11087
Eat	-11088
▁Debbie	-11089
▁whirled	-11090
▁haystack	-11091
asc	-11092
œJack	-11093
▁dizz	-11094
▁liar	-11095
▁Bloom	-11096
▁dirtier	-11097
▁pinches	-11098
▁mornings	-11099
▁position	-11100
▁carelessly	-11101
▁Barb	-11102
▁herd	-11103
▁Bones	-11104
▁Mollyâ	-11105
coloured	-11106
▁gaining	-11107
talk	-11108
▁Ari	-11109
▁Mars	-11110
▁Mill	-11111
▁warns	-11112
▁rattle	-11113
▁bubbled	-11114
▁challenging	-11115
oint	-11116
▁advant	-11117
▁lunged	-11118
▁thereâ	-11119
▁snuggly	-11120
▁Intrigued	-11121
Bo	-11122
▁hobby	-11123
▁sawing	-11124
▁twitch	-11125
▁appetite	-11126
▁sweating	-11127
▁selfishness	-11128
iti	-11129
With	-11130
▁Dawn	-11131
▁fifty	-11132
▁roofs	-11133
▁quality	-11134
▁involved	-11135
▁victorious	-11136
▁mid	-11137
▁plum	-11138
▁trumpets	-11139
rays	-11140
loria	-11141
▁tech	-11142
▁Jesus	-11143
▁oblig	-11144
▁elbows	-11145
▁creaked	-11146
▁tastier	-11147
▁useless	-11148
▁embraced	-11149
▁retrieved	-11150
Pe	-11151
ilot	-11152
▁Wink	-11153
▁werenâ	-11154
grateful	-11155
▁Helping	-11156
▁raisins	-11157
▁ladybugs	-11158
▁clutching	-11159
raw	-11160
▁grain	-11161
▁Gloria	-11162
▁motors	-11163
▁bruised	-11164
▁heaviest	-11165
▁notebooks	-11166
like	-11167
unate	-11168
▁kern	-11169
▁Bobbi	-11170
▁snails	-11171
▁Dancing	-11172
▁awaited	-11173
▁receiving	-11174
ooo	-11175
life	-11176
▁Dove	-11177
▁Plus	-11178
▁Merry	-11179
▁blues	-11180
▁frant	-11181
▁galax	-11182
▁quiver	-11183
▁rarely	-11184
▁squigg	-11185
▁Promise	-11186
▁pistols	-11187
▁coolness	-11188
Br	-11189
Sn	-11190
onk	-11191
than	-11192
▁hey	-11193
▁Whee	-11194
▁dadâ	-11195
▁Becca	-11196
▁slime	-11197
▁Isabel	-11198
▁thirty	-11199
▁barbecue	-11200
▁spotless	-11201
tes	-11202
Cool	-11203
▁Agn	-11204
acing	-11205
▁Pingu	-11206
▁beeps	-11207
▁choke	-11208
▁injury	-11209
▁Beatrice	-11210
▁whirring	-11211
Ten	-11212
▁Yay	-11213
œYour	-11214
▁Joel	-11215
▁Meow	-11216
▁Lacey	-11217
▁fixer	-11218
▁blinks	-11219
▁feared	-11220
▁bullies	-11221
▁screech	-11222
▁sunburn	-11223
afe	-11224
have	-11225
▁Marco	-11226
▁stead	-11227
▁construction	-11228
cel	-11229
run	-11230
ocks	-11231
▁bust	-11232
▁radi	-11233
▁sunk	-11234
▁yelps	-11235
▁howled	-11236
▁starry	-11237
▁bending	-11238
▁endings	-11239
▁screens	-11240
▁hurriedly	-11241
▁summertime	-11242
▁accessories	-11243
BC	-11244
hadow	-11245
alling	-11246
▁clums	-11247
▁Alfred	-11248
▁obliged	-11249
▁advantage	-11250
▁eyeshadow	-11251
▁embarrassment	-11252
umbs	-11253
▁ted	-11254
▁cloak	-11255
▁sawed	-11256
▁adjust	-11257
▁looped	-11258
▁breadcr	-11259
▁broomstick	-11260
▁cleverness	-11261
acon	-11262
eena	-11263
▁raw	-11264
maker	-11265
▁Club	-11266
▁silk	-11267
▁viol	-11268
▁Dream	-11269
▁fired	-11270
Careful	-11271
▁Dinner	-11272
▁Junior	-11273
▁walkie	-11274
▁admitted	-11275
cip	-11276
Phew	-11277
tles	-11278
eness	-11279
imber	-11280
▁moles	-11281
welcome	-11282
▁packet	-11283
▁gleaming	-11284
▁glinting	-11285
▁ungrateful	-11286
EE	-11287
Fro	-11288
who	-11289
fect	-11290
▁Jesse	-11291
▁Lance	-11292
▁coast	-11293
▁School	-11294
▁sorrow	-11295
▁crashes	-11296
▁inspect	-11297
▁unscrew	-11298
▁homemade	-11299
▁remaining	-11300
▁du	-11301
▁ABC	-11302
▁unn	-11303
▁Cake	-11304
▁Cody	-11305
▁rent	-11306
▁Pizza	-11307
▁glide	-11308
▁risen	-11309
▁Buttons	-11310
▁dragging	-11311
▁skeletons	-11312
▁Wake	-11313
▁Fluff	-11314
▁Spotty	-11315
▁handled	-11316
▁scrunch	-11317
Congratulations	-11318
loat	-11319
▁spir	-11320
▁driven	-11321
▁hooked	-11322
▁teddies	-11323
▁bandaged	-11324
▁potential	-11325
▁cy	-11326
▁swift	-11327
▁afloat	-11328
aculously	-11329
▁Hel	-11330
▁suggesting	-11331
Te	-11332
▁Ethan	-11333
▁ic	-11334
▁lace	-11335
▁sons	-11336
▁pointer	-11337
wh	-11338
nny	-11339
aleb	-11340
▁Happ	-11341
▁mini	-11342
▁Ribbit	-11343
▁Winnie	-11344
▁surfer	-11345
▁wagons	-11346
▁clamber	-11347
▁princip	-11348
▁Standing	-11349
▁sniffling	-11350
Free	-11351
▁Aly	-11352
▁Jet	-11353
▁Trees	-11354
▁slams	-11355
▁tossing	-11356
▁marveling	-11357
▁chattering	-11358
SH	-11359
▁.	-11360
?'.	-11361
▁bon	-11362
▁pau	-11363
liest	-11364
oodle	-11365
▁Abbi	-11366
▁Drop	-11367
▁Sami	-11368
▁Hippy	-11369
▁limped	-11370
▁tending	-11371
▁rejoiced	-11372
▁breadcrumbs	-11373
Wo	-11374
▁Lea	-11375
Being	-11376
robes	-11377
▁Asked	-11378
▁silky	-11379
▁sunda	-11380
▁trous	-11381
▁bumble	-11382
▁luxurious	-11383
▁alb	-11384
▁dut	-11385
▁Clar	-11386
▁Tabby	-11387
▁strut	-11388
Twinkle	-11389
▁Winter	-11390
▁cranky	-11391
▁magpie	-11392
▁mended	-11393
▁Animals	-11394
▁Stripey	-11395
▁chances	-11396
▁endless	-11397
▁erupted	-11398
▁grazing	-11399
Her	-11400
ooke	-11401
▁Pir	-11402
Butter	-11403
▁Tippy	-11404
▁plump	-11405
▁wilted	-11406
▁crackling	-11407
▁disobedient	-11408
inn	-11409
▁gad	-11410
Found	-11411
▁Trev	-11412
ushing	-11413
▁murky	-11414
▁Harold	-11415
▁Nearby	-11416
▁fingert	-11417
▁mustard	-11418
▁combined	-11419
▁trousers	-11420
▁oink	-11421
▁Brooke	-11422
▁fondly	-11423
▁savored	-11424
▁preventing	-11425
▁imaginative	-11426
mes	-11427
▁Agnes	-11428
▁goblin	-11429
▁private	-11430
▁whizzed	-11431
▁flipping	-11432
ima	-11433
Looks	-11434
armed	-11435
Freeze	-11436
ophies	-11437
▁sinks	-11438
▁eleven	-11439
▁Madeline	-11440
▁gestures	-11441
▁popsicles	-11442
tw	-11443
idy	-11444
▁Lara	-11445
▁Worm	-11446
▁plus	-11447
beying	-11448
▁colouring	-11449
▁principal	-11450
Squ	-11451
▁Him	-11452
gling	-11453
▁buds	-11454
▁Aaron	-11455
▁amuse	-11456
▁reins	-11457
▁Trevor	-11458
▁impact	-11459
▁similar	-11460
▁creaking	-11461
▁drifting	-11462
▁greeting	-11463
▁grounded	-11464
▁quitting	-11465
dled	-11466
▁Eli	-11467
▁Gor	-11468
▁Cherry	-11469
▁affect	-11470
▁cranes	-11471
▁speeds	-11472
▁assured	-11473
▁trimmed	-11474
ula	-11475
ping	-11476
rant	-11477
▁Owen	-11478
▁Sylvia	-11479
▁streak	-11480
▁Whistle	-11481
▁booming	-11482
▁grownup	-11483
▁removing	-11484
▁trophies	-11485
▁wasteful	-11486
▁nightlight	-11487
Im	-11488
▁pes	-11489
▁Seth	-11490
▁Writing	-11491
▁Stealing	-11492
▁tiredness	-11493
nut	-11494
▁Melinda	-11495
▁messing	-11496
▁session	-11497
Grab	-11498
Emily	-11499
stret	-11500
▁Donna	-11501
▁explos	-11502
▁liking	-11503
▁stalls	-11504
▁replies	-11505
olo	-11506
▁Mika	-11507
▁mums	-11508
▁cawed	-11509
▁snore	-11510
▁Samuel	-11511
▁Pickles	-11512
▁forming	-11513
▁rhythms	-11514
▁resolved	-11515
▁Butterfly	-11516
mar	-11517
Poor	-11518
aced	-11519
ikki	-11520
table	-11521
upert	-11522
▁Hipp	-11523
ancing	-11524
▁album	-11525
▁oohed	-11526
▁Disapp	-11527
▁Piggie	-11528
▁copies	-11529
▁existed	-11530
▁paddles	-11531
gent	-11532
▁Ban	-11533
inter	-11534
▁Miaâ	-11535
riosity	-11536
▁sucked	-11537
▁Sweetie	-11538
▁coaster	-11539
▁uniting	-11540
▁unlocks	-11541
▁whining	-11542
▁apartment	-11543
arium	-11544
handed	-11545
▁adopt	-11546
▁calms	-11547
▁paste	-11548
▁Rupert	-11549
▁effect	-11550
▁shaker	-11551
▁Annabel	-11552
▁clearer	-11553
▁locking	-11554
▁passage	-11555
▁amusement	-11556
▁resources	-11557
▁frantically	-11558
▁foreshadowing	-11559
OP	-11560
Brrr	-11561
▁Bugs	-11562
▁rumm	-11563
▁sips	-11564
▁chaos	-11565
▁gnome	-11566
▁chalks	-11567
▁nuzzles	-11568
▁protest	-11569
▁squeaks	-11570
▁sounding	-11571
▁achieving	-11572
ams	-11573
mind	-11574
arrot	-11575
▁Cora	-11576
▁lolly	-11577
▁pluck	-11578
▁saves	-11579
brushes	-11580
▁adored	-11581
▁mastered	-11582
œR	-11583
œBye	-11584
ettle	-11585
Johnny	-11586
iraffe	-11587
▁unzip	-11588
▁runners	-11589
▁storing	-11590
▁stations	-11591
▁recordings	-11592
!'"	-11593
awk	-11594
▁Half	-11595
▁Lynn	-11596
onight	-11597
▁glory	-11598
▁cocked	-11599
▁spoilt	-11600
▁crumble	-11601
▁spreads	-11602
▁measures	-11603
pill	-11604
pole	-11605
▁Ped	-11606
organ	-11607
▁dism	-11608
▁smoot	-11609
▁scurry	-11610
▁emptied	-11611
▁messier	-11612
▁grandparent	-11613
œL	-11614
itz	-11615
▁Maxâ	-11616
▁Puff	-11617
ictory	-11618
ointed	-11619
▁Tooth	-11620
edience	-11621
▁gobble	-11622
▁cutters	-11623
▁regretful	-11624
ns	-11625
rex	-11626
▁sul	-11627
▁princes	-11628
▁Learning	-11629
▁hungrier	-11630
▁squeaking	-11631
▁stumbling	-11632
.''	-11633
▁Pole	-11634
▁cartwhe	-11635
▁closest	-11636
▁fastened	-11637
▁laz	-11638
horse	-11639
ifted	-11640
everse	-11641
▁Caleb	-11642
▁Lillie	-11643
▁Wonder	-11644
▁huffed	-11645
▁unwrap	-11646
AR	-11647
bel	-11648
des	-11649
boos	-11650
knob	-11651
▁dil	-11652
▁High	-11653
▁Lacy	-11654
▁Rino	-11655
▁dials	-11656
▁opportun	-11657
▁impatiently	-11658
Red	-11659
plash	-11660
œThey	-11661
▁Lana	-11662
▁crum	-11663
▁rosy	-11664
▁unpl	-11665
▁diver	-11666
▁greed	-11667
▁doorknob	-11668
▁squealing	-11669
▁opportunities	-11670
▁Eng	-11671
▁jig	-11672
▁pea	-11673
▁Coal	-11674
▁Fuzz	-11675
nowing	-11676
▁Biscuit	-11677
▁hairsty	-11678
AP	-11679
▁hyd	-11680
imming	-11681
▁Drink	-11682
▁donate	-11683
▁dazzling	-11684
▁whooshing	-11685
▁ah	-11686
asey	-11687
▁alp	-11688
Sammy	-11689
▁Fanny	-11690
▁brake	-11691
▁Gently	-11692
▁belief	-11693
▁cupped	-11694
▁Stripes	-11695
▁croaking	-11696
Tell	-11697
▁Tad	-11698
▁rev	-11699
tingu	-11700
▁Soup	-11701
▁jacks	-11702
▁Sheila	-11703
▁fairly	-11704
▁festiv	-11705
▁itches	-11706
aterpill	-11707
▁extingu	-11708
▁clambered	-11709
▁dishonest	-11710
▁struggles	-11711
eers	-11712
eras	-11713
▁Sale	-11714
▁banner	-11715
▁blended	-11716
▁grounds	-11717
▁outdoor	-11718
▁vendors	-11719
▁skateboard	-11720
▁compliments	-11721
▁thoughtfulness	-11722
Bear	-11723
▁Ask	-11724
▁Seb	-11725
▁nin	-11726
▁Pingo	-11727
▁mango	-11728
▁catcher	-11729
▁figuring	-11730
▁pinecone	-11731
▁sledding	-11732
bag	-11733
Jake	-11734
▁Pot	-11735
Greet	-11736
ecess	-11737
uacky	-11738
▁shaken	-11739
▁Smiling	-11740
▁sharpened	-11741
rimp	-11742
▁owe	-11743
idget	-11744
▁Pain	-11745
▁Silly	-11746
▁donut	-11747
▁snorts	-11748
▁unstuck	-11749
▁meetings	-11750
▁described	-11751
zzly	-11752
▁dial	-11753
▁Celia	-11754
▁Chewy	-11755
▁dilig	-11756
▁skulls	-11757
▁superp	-11758
▁deepest	-11759
stretched	-11760
▁Isabelle	-11761
▁unnecess	-11762
▁Curiosity	-11763
▁rectangle	-11764
beat	-11765
▁Aid	-11766
▁Mei	-11767
stalk	-11768
▁Bobâ	-11769
▁Gaby	-11770
▁Archie	-11771
▁Cookie	-11772
▁goalie	-11773
▁jingle	-11774
▁whilst	-11775
▁Officer	-11776
▁padlock	-11777
▁rattling	-11778
▁lighthouse	-11779
▁paramedics	-11780
ok	-11781
▁erra	-11782
▁gumb	-11783
▁zone	-11784
llowed	-11785
▁Boris	-11786
▁Tracy	-11787
▁gumball	-11788
▁secretly	-11789
▁sprinted	-11790
▁traveler	-11791
œSometimes	-11792
▁blessings	-11793
▁thousands	-11794
▁Grandmother	-11795
Catch	-11796
▁Honest	-11797
▁normally	-11798
▁comfortably	-11799
▁outstretched	-11800
spass	-11801
▁Must	-11802
▁Work	-11803
flower	-11804
▁Giant	-11805
▁Speed	-11806
▁feeder	-11807
▁sundae	-11808
▁unsafe	-11809
Surrender	-11810
▁crumpled	-11811
Drink	-11812
▁Scar	-11813
▁heed	-11814
master	-11815
▁Walter	-11816
▁mommyâ	-11817
▁kernels	-11818
▁fingertips	-11819
usie	-11820
▁sug	-11821
▁Bell	-11822
▁Herb	-11823
▁Pine	-11824
▁Sissy	-11825
▁Socky	-11826
▁demon	-11827
▁layed	-11828
▁moist	-11829
▁blessing	-11830
▁waddling	-11831
cted	-11832
▁Bib	-11833
▁zag	-11834
venge	-11835
▁Claw	-11836
▁ridden	-11837
▁runway	-11838
▁bedside	-11839
▁climber	-11840
▁Wednesdays	-11841
Per	-11842
irls	-11843
▁Str	-11844
▁cla	-11845
verse	-11846
▁Beef	-11847
▁Hero	-11848
▁Lying	-11849
▁tacos	-11850
▁cameras	-11851
▁storybook	-11852
▁unnecessary	-11853
▁Disappointed	-11854
oyal	-11855
rain	-11856
▁Mal	-11857
▁bins	-11858
▁main	-11859
▁Henny	-11860
▁chant	-11861
▁dearly	-11862
▁privacy	-11863
▁sipping	-11864
▁slurped	-11865
▁sunsets	-11866
▁critters	-11867
▁postcard	-11868
▁childhood	-11869
▁horrified	-11870
hop	-11871
▁Cam	-11872
▁Jed	-11873
▁Bean	-11874
▁Juan	-11875
▁cock	-11876
▁hint	-11877
▁Pedro	-11878
iscilla	-11879
▁sevent	-11880
▁potions	-11881
▁revenge	-11882
▁dandelion	-11883
▁Eag	-11884
▁Hot	-11885
▁vows	-11886
▁Robot	-11887
▁posts	-11888
▁daddies	-11889
▁arriving	-11890
▁cabinets	-11891
▁jealousy	-11892
▁Priscilla	-11893
▁teaspoons	-11894
▁cigarettes	-11895
Iâ	-11896
ni	-11897
▁Bre	-11898
▁Navy	-11899
phones	-11900
talkie	-11901
▁spine	-11902
▁tangy	-11903
▁Number	-11904
▁mooing	-11905
▁yanked	-11906
▁trapping	-11907
▁hopefully	-11908
▁mailboxes	-11909
!''	-11910
Caw	-11911
olk	-11912
Mimi	-11913
toed	-11914
▁ins	-11915
orget	-11916
stone	-11917
▁dice	-11918
▁fate	-11919
inning	-11920
▁Match	-11921
▁Crocod	-11922
▁Sallyâ	-11923
▁prized	-11924
▁supper	-11925
▁territ	-11926
▁sighing	-11927
▁demonstr	-11928
▁hamburger	-11929
▁recommending	-11930
vere	-11931
brina	-11932
▁Loop	-11933
▁Salt	-11934
▁brag	-11935
▁Money	-11936
▁brats	-11937
▁react	-11938
▁wands	-11939
▁coiled	-11940
▁volunt	-11941
▁Sabrina	-11942
▁scaredy	-11943
▁squawking	-11944
▁protective	-11945
ta	-11946
Push	-11947
erson	-11948
habet	-11949
▁brief	-11950
▁unwell	-11951
▁echoing	-11952
▁matchbox	-11953
▁sentence	-11954
▁sheepish	-11955
▁interests	-11956
▁overnight	-11957
ex	-11958
lled	-11959
▁doubt	-11960
▁tilts	-11961
▁talons	-11962
▁capable	-11963
▁harshly	-11964
▁stubbed	-11965
Greetings	-11966
▁Patience	-11967
▁shiniest	-11968
▁spitting	-11969
▁bathrobes	-11970
▁preferred	-11971
▁measurements	-11972
zoom	-11973
▁New	-11974
▁Raj	-11975
▁mumâ	-11976
▁Great	-11977
▁Louis	-11978
▁screec	-11979
▁sugary	-11980
▁worlds	-11981
▁parades	-11982
▁cucumber	-11983
▁relation	-11984
▁Goodnight	-11985
ew	-11986
Bobo	-11987
▁Ind	-11988
▁due	-11989
▁rash	-11990
▁boost	-11991
▁mower	-11992
▁excuse	-11993
▁ladies	-11994
▁channel	-11995
▁conquer	-11996
▁flicker	-11997
▁ponytail	-11998
▁unforget	-11999
▁cit	-12000
▁wasp	-12001
▁Think	-12002
▁blind	-12003
▁diaper	-12004
▁longed	-12005
▁surfed	-12006
Children	-12007
▁alphabet	-12008
▁survived	-12009
▁Everytime	-12010
▁insistent	-12011
ssssssssssssssss	-12012
mail	-12013
▁Prun	-12014
iginal	-12015
▁Biggy	-12016
▁terror	-12017
▁Scarlet	-12018
▁flopped	-12019
▁chugging	-12020
▁includes	-12021
▁thrilling	-12022
▁grumpiness	-12023
▁thankfully	-12024
▁combination	-12025
▁unforgettable	-12026
Even	-12027
enses	-12028
owner	-12029
▁Cott	-12030
▁summ	-12031
▁Yummy	-12032
▁Flying	-12033
▁tumble	-12034
▁critter	-12035
zo	-12036
haw	-12037
iko	-12038
ori	-12039
▁yay	-12040
▁Lucie	-12041
▁ponder	-12042
▁prepar	-12043
▁serves	-12044
▁snowed	-12045
▁uneasy	-12046
▁wildly	-12047
▁shaving	-12048
▁assistant	-12049
True	-12050
affy	-12051
▁Apple	-12052
▁cents	-12053
▁hiked	-12054
▁fighters	-12055
▁swingset	-12056
▁dong	-12057
stream	-12058
▁Hippo	-12059
▁benef	-12060
▁tiles	-12061
▁Making	-12062
▁wetness	-12063
▁playmate	-12064
▁unzipped	-12065
▁forgetful	-12066
▁territory	-12067
▁hesitantly	-12068
▁SN	-12069
fying	-12070
▁Bibi	-12071
▁equal	-12072
▁spect	-12073
▁trace	-12074
▁remark	-12075
Ra	-12076
▁CRA	-12077
▁maths	-12078
▁shove	-12079
▁Faster	-12080
▁demands	-12081
▁unlucky	-12082
▁valuing	-12083
▁Adventure	-12084
▁dizziness	-12085
roy	-12086
Cheese	-12087
▁Clown	-12088
▁Laila	-12089
▁stomps	-12090
▁Flowers	-12091
▁drummer	-12092
▁attacking	-12093
raph	-12094
▁Georg	-12095
▁Wanda	-12096
▁grave	-12097
▁dismay	-12098
▁droopy	-12099
▁crackle	-12100
▁Thinking	-12101
▁toughest	-12102
▁explosion	-12103
▁disturbance	-12104
Want	-12105
▁Sha	-12106
▁Bald	-12107
▁Dara	-12108
▁dash	-12109
▁halo	-12110
▁loss	-12111
ferent	-12112
▁Guard	-12113
▁Rolly	-12114
▁Shell	-12115
▁ouchy	-12116
▁pouts	-12117
▁Cassie	-12118
▁Philip	-12119
▁tidier	-12120
▁tighten	-12121
▁littlest	-12122
ga	-12123
Bunny	-12124
▁vari	-12125
▁March	-12126
▁Truck	-12127
▁roles	-12128
▁Dennis	-12129
▁steaks	-12130
▁therap	-12131
▁feature	-12132
▁steadily	-12133
▁beanstalk	-12134
▁headphones	-12135
Sw	-12136
inic	-12137
▁bay	-12138
▁lat	-12139
▁frol	-12140
▁oint	-12141
▁mitts	-12142
▁Tigger	-12143
▁gadgets	-12144
▁someplace	-12145
Grow	-12146
enter	-12147
▁decre	-12148
▁pawed	-12149
▁Timmyâ	-12150
▁beaten	-12151
▁greens	-12152
ifferent	-12153
▁Heather	-12154
▁faithful	-12155
▁stitching	-12156
▁Col	-12157
▁jay	-12158
nness	-12159
spect	-12160
▁Cleo	-12161
▁Wood	-12162
œhello	-12163
▁Twist	-12164
reverse	-12165
rrrrrrrr	-12166
▁slippers	-12167
▁pedalling	-12168
▁replacement	-12169
zes	-12170
erie	-12171
ills	-12172
▁War	-12173
▁tad	-12174
▁citiz	-12175
▁pesky	-12176
▁Reggie	-12177
▁archer	-12178
▁draped	-12179
▁volume	-12180
▁cactuses	-12181
▁clicking	-12182
▁snatches	-12183
acam	-12184
▁quen	-12185
▁Mitch	-12186
▁Petal	-12187
acamole	-12188
▁heater	-12189
▁floaties	-12190
▁ointment	-12191
▁retrieve	-12192
▁attracted	-12193
ami	-12194
iped	-12195
irds	-12196
Young	-12197
pilot	-12198
▁Wanna	-12199
▁Oxygen	-12200
▁ignores	-12201
▁Mustache	-12202
▁calmness	-12203
▁poisoned	-12204
▁register	-12205
▁everytime	-12206
bang	-12207
gery	-12208
iffy	-12209
ament	-12210
▁Dare	-12211
▁Four	-12212
▁Sari	-12213
▁flam	-12214
▁chests	-12215
▁unison	-12216
▁Miranda	-12217
niversity	-12218
▁licenses	-12219
▁reflecting	-12220
Del	-12221
▁Fle	-12222
▁Fun	-12223
idered	-12224
▁Achoo	-12225
▁China	-12226
▁Diane	-12227
▁ponds	-12228
▁sizzle	-12229
▁appoint	-12230
▁farmhouse	-12231
▁guacamole	-12232
▁scribbles	-12233
Pr	-12234
dles	-12235
▁pry	-12236
Chirp	-12237
aging	-12238
ottie	-12239
▁wavy	-12240
freeze	-12241
▁tapes	-12242
▁guiding	-12243
▁surfers	-12244
▁tougher	-12245
▁windmill	-12246
▁appearing	-12247
ji	-12248
▁Dodo	-12249
▁Real	-12250
▁pits	-12251
▁Crane	-12252
▁cacti	-12253
▁vases	-12254
ornness	-12255
▁spatul	-12256
œAlright	-12257
▁displays	-12258
▁warriors	-12259
▁gardeners	-12260
▁propeller	-12261
▁screeched	-12262
▁permitting	-12263
As	-12264
tre	-12265
two	-12266
ule	-12267
▁Bes	-12268
Peter	-12269
▁Dogs	-12270
▁Mail	-12271
▁Sail	-12272
astian	-12273
lderly	-12274
▁Bessy	-12275
▁Misty	-12276
▁Nikki	-12277
▁Round	-12278
▁mostly	-12279
▁tackle	-12280
▁shyness	-12281
▁painters	-12282
▁obedience	-12283
▁Pad	-12284
▁SNAP	-12285
▁foss	-12286
▁imit	-12287
▁bacon	-12288
▁surge	-12289
▁Lastly	-12290
▁Trixie	-12291
▁coughs	-12292
▁smarts	-12293
▁Scruffy	-12294
▁carpets	-12295
▁chuckle	-12296
▁insists	-12297
▁jiggled	-12298
▁wriggle	-12299
▁keyboard	-12300
▁Sebastian	-12301
Pass	-12302
aris	-12303
▁Bat	-12304
œWhen	-12305
▁Best	-12306
▁cann	-12307
▁Sheep	-12308
▁latest	-12309
▁option	-12310
▁scoring	-12311
▁wildlife	-12312
▁bumblebee	-12313
▁pure	-12314
▁swer	-12315
▁Lions	-12316
▁Trina	-12317
▁dates	-12318
▁Around	-12319
▁buzzes	-12320
▁habits	-12321
▁wilder	-12322
▁Climbing	-12323
▁entertain	-12324
▁gleefully	-12325
▁stubbornness	-12326
Pizza	-12327
▁crad	-12328
▁lave	-12329
▁phra	-12330
▁unra	-12331
▁swell	-12332
▁pasture	-12333
▁pruning	-12334
▁refuses	-12335
▁sibling	-12336
▁spatula	-12337
▁breathes	-12338
▁lavender	-12339
▁beekeeper	-12340
▁photograp	-12341
At	-12342
hot	-12343
Five	-12344
▁unb	-12345
▁glues	-12346
▁treet	-12347
▁Bumble	-12348
▁Moments	-12349
▁sniffles	-12350
▁strutted	-12351
▁Caterpill	-12352
œAh	-12353
Lola	-12354
Play	-12355
etti	-12356
about	-12357
▁clam	-12358
▁pang	-12359
▁prey	-12360
▁areas	-12361
▁beams	-12362
▁taxis	-12363
iration	-12364
retruck	-12365
▁digger	-12366
▁hooted	-12367
▁razors	-12368
▁Georgie	-12369
▁festivals	-12370
▁somersaults	-12371
▁Miraculously	-12372
',"	-12373
arty	-12374
essor	-12375
▁Dale	-12376
▁pier	-12377
▁rung	-12378
lessly	-12379
▁Judge	-12380
▁Loyal	-12381
▁bearâ	-12382
▁death	-12383
▁overc	-12384
▁packs	-12385
rinkles	-12386
▁Connie	-12387
▁clinic	-12388
▁newest	-12389
▁washer	-12390
▁flicked	-12391
▁partied	-12392
▁rounded	-12393
▁sprouted	-12394
▁sprinkling	-12395
▁zigzagging	-12396
En	-12397
Over	-12398
▁bid	-12399
œWhoâ	-12400
▁garl	-12401
▁Moley	-12402
▁grasped	-12403
▁peopleâ	-12404
▁surgery	-12405
▁coconuts	-12406
▁stroking	-12407
▁firetruck	-12408
▁remarkable	-12409
woo	-12410
▁ki	-12411
illip	-12412
▁icic	-12413
▁laps	-12414
▁loaf	-12415
▁toot	-12416
People	-12417
▁basil	-12418
▁puffy	-12419
▁Having	-12420
▁scraps	-12421
▁product	-12422
▁variety	-12423
▁seahorse	-12424
▁arranging	-12425
▁vanishing	-12426
orks	-12427
antic	-12428
cling	-12429
there	-12430
▁ruby	-12431
▁Genie	-12432
▁Muffy	-12433
▁sunbe	-12434
▁outrun	-12435
▁collars	-12436
▁swished	-12437
▁threats	-12438
▁bustling	-12439
▁confetti	-12440
▁muttered	-12441
▁simplest	-12442
▁reindeers	-12443
▁recognised	-12444
▁collections	-12445
▁ko	-12446
azel	-12447
pair	-12448
pher	-12449
sure	-12450
▁poo	-12451
erest	-12452
▁Call	-12453
▁Spicy	-12454
▁grade	-12455
▁fulfill	-12456
▁mothers	-12457
▁needing	-12458
▁spelled	-12459
▁wheeled	-12460
▁flitting	-12461
▁goldfish	-12462
▁Jellyfish	-12463
▁considered	-12464
yla	-12465
▁Na	-12466
Ella	-12467
Toby	-12468
▁Hunt	-12469
▁Macy	-12470
▁Mond	-12471
▁moan	-12472
▁plea	-12473
belief	-12474
▁Hazel	-12475
▁dares	-12476
▁repay	-12477
▁Jemima	-12478
▁Phillip	-12479
▁bandaid	-12480
▁mopping	-12481
▁pathway	-12482
▁persisted	-12483
▁Reluctantly	-12484
Love	-12485
izmo	-12486
ulty	-12487
▁Cut	-12488
▁Heâ	-12489
▁jer	-12490
Bella	-12491
umbly	-12492
▁fres	-12493
▁gown	-12494
innied	-12495
▁Comet	-12496
▁slaps	-12497
▁torch	-12498
▁froggy	-12499
▁kettle	-12500
▁fetches	-12501
▁punched	-12502
▁whinnied	-12503
▁appointment	-12504
▁En	-12505
rors	-12506
▁Ter	-12507
▁Grump	-12508
▁menus	-12509
▁crafted	-12510
▁helpfulness	-12511
Donâ	-12512
Four	-12513
irew	-12514
▁Lyla	-12515
▁hula	-12516
▁Micky	-12517
▁dying	-12518
certain	-12519
▁twinkly	-12520
▁encounter	-12521
Bra	-12522
▁Flex	-12523
▁pred	-12524
Nobody	-12525
œThese	-12526
▁Friday	-12527
▁duckie	-12528
▁tingly	-12529
▁bullets	-12530
▁grandad	-12531
▁grunted	-12532
▁scrapes	-12533
▁uncover	-12534
▁yellows	-12535
▁markings	-12536
▁ticklish	-12537
▁whizzing	-12538
▁Chocolate	-12539
Sir	-12540
▁Wor	-12541
▁aqu	-12542
imate	-12543
▁Biff	-12544
▁Gizmo	-12545
▁Jessy	-12546
▁buyer	-12547
▁weave	-12548
▁pucker	-12549
▁teases	-12550
▁arrival	-12551
▁peeling	-12552
▁collapse	-12553
▁wonderland	-12554
omi	-12555
▁Ce	-12556
▁gig	-12557
ictor	-12558
tract	-12559
▁Blake	-12560
▁eater	-12561
▁Jeffrey	-12562
▁comment	-12563
▁rowboat	-12564
▁trained	-12565
▁yummier	-12566
▁craziest	-12567
▁cultures	-12568
▁tweeting	-12569
▁uncertain	-12570
auce	-12571
isky	-12572
ippee	-12573
ifteen	-12574
▁Freck	-12575
▁blend	-12576
▁curse	-12577
verance	-12578
▁tailor	-12579
▁Giraffe	-12580
▁luckier	-12581
▁motherâ	-12582
▁spinach	-12583
▁agreeing	-12584
▁dangling	-12585
▁disbelief	-12586
▁zigzagged	-12587
▁hamburgers	-12588
▁approaching	-12589
▁Dor	-12590
▁dun	-12591
▁ABCs	-12592
▁Deer	-12593
▁Higher	-12594
▁forces	-12595
▁divided	-12596
▁tinkling	-12597
▁Sprinkles	-12598
▁carpenter	-12599
lie	-12600
œHe	-12601
apes	-12602
▁Nic	-12603
Susie	-12604
icity	-12605
irley	-12606
ouble	-12607
▁Bull	-12608
▁pest	-12609
ashion	-12610
▁Meena	-12611
▁villages	-12612
▁perseverance	-12613
arr	-12614
▁Mop	-12615
▁cav	-12616
▁unc	-12617
▁Marc	-12618
▁thaw	-12619
▁Brady	-12620
▁Lilah	-12621
▁Puffy	-12622
▁based	-12623
▁forty	-12624
kerchief	-12625
▁applied	-12626
▁battles	-12627
▁flamingo	-12628
▁stressed	-12629
▁gentleman	-12630
▁teammates	-12631
▁therapist	-12632
Gl	-12633
Aww	-12634
tie	-12635
izer	-12636
shake	-12637
▁Riding	-12638
▁bullet	-12639
▁pumped	-12640
▁wisest	-12641
▁juggled	-12642
▁handfuls	-12643
▁tradition	-12644
▁handkerchief	-12645
œTom	-12646
▁Syd	-12647
ander	-12648
▁Aiden	-12649
▁Brand	-12650
▁feeds	-12651
▁minty	-12652
Imagine	-12653
▁syring	-12654
▁Shirley	-12655
▁closets	-12656
▁familyâ	-12657
▁nibbles	-12658
▁toddled	-12659
▁incident	-12660
▁scribble	-12661
▁Butterflies	-12662
▁recognizing	-12663
▁announcement	-12664
Miss	-12665
arch	-12666
▁Hay	-12667
▁Tip	-12668
▁arc	-12669
▁kil	-12670
haved	-12671
▁Milk	-12672
▁coax	-12673
▁inqu	-12674
▁poll	-12675
▁rins	-12676
▁smir	-12677
▁Bears	-12678
▁bendy	-12679
▁Shrimp	-12680
▁flutes	-12681
▁losers	-12682
▁trespass	-12683
œYum	-12684
▁coz	-12685
▁Cole	-12686
▁Toot	-12687
▁Waff	-12688
▁diet	-12689
ragile	-12690
▁Casey	-12691
▁moose	-12692
▁strap	-12693
▁Danger	-12694
▁Monday	-12695
▁golfer	-12696
▁waddle	-12697
▁compost	-12698
▁continues	-12699
▁eagerness	-12700
▁diligently	-12701
▁photographer	-12702
isha	-12703
ivid	-12704
▁Mig	-12705
▁adj	-12706
▁neg	-12707
otcha	-12708
▁Leila	-12709
▁const	-12710
▁flush	-12711
▁Dorothy	-12712
▁weaving	-12713
specially	-12714
▁Felicity	-12715
▁engineer	-12716
▁snarling	-12717
▁suitable	-12718
▁sheepishly	-12719
▁personality	-12720
œT	-12721
▁amb	-12722
ivers	-12723
▁Aren	-12724
▁Wild	-12725
▁canes	-12726
▁Sharon	-12727
▁storyt	-12728
▁greener	-12729
▁syringe	-12730
▁quickest	-12731
▁splinter	-12732
▁difficulty	-12733
Grace	-12734
ively	-12735
▁Tuck	-12736
▁chug	-12737
▁Benji	-12738
▁fewer	-12739
inosaur	-12740
▁transp	-12741
▁English	-12742
Ho	-12743
NO	-12744
Ele	-12745
Mon	-12746
ius	-12747
œOne	-12748
▁dew	-12749
three	-12750
▁Dolp	-12751
▁dayâ	-12752
▁moss	-12753
▁picky	-12754
▁Greeny	-12755
▁reeled	-12756
▁rounds	-12757
▁bundled	-12758
▁produce	-12759
▁shooter	-12760
▁Broccoli	-12761
▁adjusted	-12762
▁roundabout	-12763
Sm	-12764
EEP	-12765
eee	-12766
▁award	-12767
▁leafy	-12768
▁cheery	-12769
▁watery	-12770
▁pyjamas	-12771
▁scarier	-12772
▁directly	-12773
▁distress	-12774
▁Amazingly	-12775
AA	-12776
œDid	-12777
▁Rad	-12778
▁Sat	-12779
▁rugs	-12780
▁sobs	-12781
Stupid	-12782
acular	-12783
▁rhyme	-12784
alities	-12785
pitched	-12786
▁Clover	-12787
▁erased	-12788
▁fruity	-12789
▁safest	-12790
▁Hearing	-12791
▁mermaids	-12792
▁perspect	-12793
▁fortunate	-12794
▁profession	-12795
Rob	-12796
pon	-12797
yum	-12798
rite	-12799
▁sis	-12800
▁gaps	-12801
▁finest	-12802
▁judged	-12803
▁artists	-12804
▁whirred	-12805
▁aquarium	-12806
▁villains	-12807
▁spectacular	-12808
▁accomplishments	-12809
care	-12810
ixie	-12811
wear	-12812
▁Lil	-12813
ounds	-12814
smith	-12815
▁Addy	-12816
iously	-12817
▁Lemon	-12818
▁Smiley	-12819
▁Belinda	-12820
▁bonfire	-12821
▁fifteen	-12822
▁pounded	-12823
▁underest	-12824
▁woodland	-12825
▁silverware	-12826
Fr	-12827
œD	-12828
Woo	-12829
ugs	-12830
lling	-12831
▁Elli	-12832
▁Coffee	-12833
▁entert	-12834
▁meaner	-12835
▁tulips	-12836
▁citizens	-12837
▁gigantic	-12838
▁entertained	-12839
zed	-12840
anas	-12841
oons	-12842
rina	-12843
bbies	-12844
▁Lego	-12845
▁aims	-12846
▁recy	-12847
Gotcha	-12848
minded	-12849
▁Glass	-12850
▁inser	-12851
▁polit	-12852
▁evenly	-12853
▁duckies	-12854
▁errands	-12855
▁savoring	-12856
▁Somewhere	-12857
▁restaurants	-12858
sn	-12859
'!"	-12860
▁Bud	-12861
▁oar	-12862
▁var	-12863
print	-12864
▁Flap	-12865
▁chief	-12866
▁spout	-12867
▁Sydney	-12868
▁Woolly	-12869
▁flickered	-12870
▁octopuses	-12871
▁whimpering	-12872
▁daydreaming	-12873
ham	-12874
lse	-12875
wis	-12876
Boom	-12877
alie	-12878
hoot	-12879
Snowy	-12880
œGive	-12881
▁foil	-12882
▁intr	-12883
▁ruins	-12884
▁cockpit	-12885
▁copying	-12886
▁fortune	-12887
▁drumming	-12888
▁frighten	-12889
▁savannah	-12890
▁watchful	-12891
▁blacksmith	-12892
ST	-12893
Stir	-12894
orky	-12895
▁vig	-12896
Buddy	-12897
▁crows	-12898
illiest	-12899
▁mopped	-12900
▁sliced	-12901
▁trades	-12902
œGoodbye	-12903
▁richest	-12904
▁inserted	-12905
▁nighttime	-12906
▁unscrewed	-12907
▁containers	-12908
top	-12909
gies	-12910
œMax	-12911
check	-12912
▁mash	-12913
mances	-12914
▁Peach	-12915
▁Potato	-12916
▁Smokey	-12917
▁ashore	-12918
▁Halfway	-12919
▁launched	-12920
▁persuade	-12921
▁sideways	-12922
▁clipboard	-12923
▁brightness	-12924
Soup	-12925
odies	-12926
▁Luisa	-12927
▁Otter	-12928
▁farmy	-12929
▁peaked	-12930
▁bleated	-12931
▁smeared	-12932
▁melodies	-12933
▁subtract	-12934
▁performances	-12935
aser	-12936
▁cowg	-12937
▁fizz	-12938
▁hasn	-12939
▁Joyce	-12940
▁brist	-12941
covered	-12942
▁attend	-12943
▁betray	-12944
▁neared	-12945
▁Gorilla	-12946
▁admires	-12947
▁mirrors	-12948
▁pouting	-12949
▁farmyard	-12950
▁fearless	-12951
▁longingly	-12952
▁fascination	-12953
▁inspiration	-12954
baa	-12955
Slow	-12956
Turn	-12957
▁Mer	-12958
▁Sel	-12959
ierce	-12960
▁nick	-12961
œToday	-12962
▁conso	-12963
▁latch	-12964
▁tourn	-12965
▁Months	-12966
▁majesty	-12967
▁patched	-12968
▁shifted	-12969
▁Freckles	-12970
▁silliest	-12971
▁exercised	-12972
Bee	-12973
▁Saf	-12974
▁gur	-12975
▁Pump	-12976
▁Wool	-12977
▁poof	-12978
▁wilt	-12979
▁spool	-12980
▁Clucky	-12981
▁locket	-12982
▁meanie	-12983
▁nailed	-12984
▁conflic	-12985
▁leaders	-12986
▁hairstyle	-12987
▁unplugged	-12988
nor	-12989
urr	-12990
▁Mos	-12991
▁wary	-12992
▁limit	-12993
htaking	-12994
▁Dreams	-12995
▁lapped	-12996
▁medium	-12997
▁sauces	-12998
▁pranced	-12999
▁rattled	-13000
▁scanned	-13001
▁galaxies	-13002
▁internet	-13003
▁pressure	-13004
▁sensible	-13005
▁sprinkler	-13006
▁brilliantly	-13007
▁breathtaking	-13008
▁Congratulations	-13009
God	-13010
Aunt	-13011
erek	-13012
give	-13013
▁Raz	-13014
Ellie	-13015
akers	-13016
somet	-13017
▁alas	-13018
▁Snake	-13019
▁koala	-13020
▁Ferris	-13021
▁Jimmyâ	-13022
▁motorb	-13023
▁harbour	-13024
▁hobbies	-13025
Po	-13026
mi	-13027
OAR	-13028
Rock	-13029
aves	-13030
zzle	-13031
▁Luca	-13032
▁Mall	-13033
▁tons	-13034
asting	-13035
▁Derek	-13036
▁Trudy	-13037
▁adver	-13038
▁alike	-13039
▁sales	-13040
because	-13041
ization	-13042
▁former	-13043
▁piglet	-13044
▁Pauline	-13045
▁despair	-13046
▁suppose	-13047
▁various	-13048
▁Scarlett	-13049
▁collects	-13050
▁villager	-13051
▁transform	-13052
Was	-13053
essa	-13054
mine	-13055
▁sam	-13056
Shall	-13057
orthy	-13058
▁Gill	-13059
uccess	-13060
▁Elisa	-13061
▁Maryâ	-13062
▁beats	-13063
▁posed	-13064
▁reeds	-13065
▁Frisky	-13066
▁attent	-13067
▁barbers	-13068
▁limping	-13069
▁punishing	-13070
new	-13071
Toys	-13072
aley	-13073
œyes	-13074
▁bol	-13075
match	-13076
▁Amie	-13077
œGreat	-13078
œReady	-13079
▁Danie	-13080
▁ditch	-13081
ception	-13082
▁Forest	-13083
▁Miguel	-13084
▁kayaks	-13085
▁policy	-13086
▁lioness	-13087
▁trainer	-13088
▁visible	-13089
▁gemstone	-13090
Ge	-13091
▁Op	-13092
Shut	-13093
hony	-13094
they	-13095
nyard	-13096
▁Yuck	-13097
▁publ	-13098
▁Cocoa	-13099
▁Ducks	-13100
▁croaks	-13101
▁fellow	-13102
▁proven	-13103
▁wailed	-13104
▁History	-13105
▁spinner	-13106
shadowing	-13107
▁barnyard	-13108
▁meanings	-13109
▁overcame	-13110
▁wrinkles	-13111
rer	-13112
Ball	-13113
irly	-13114
▁sta	-13115
etern	-13116
udges	-13117
▁asse	-13118
▁prec	-13119
▁layers	-13120
▁parlor	-13121
▁beaches	-13122
▁obvious	-13123
▁peering	-13124
▁addressed	-13125
▁dandelions	-13126
▁speechless	-13127
▁suggestions	-13128
Pop	-13129
▁ir	-13130
bulb	-13131
▁Ign	-13132
▁Oat	-13133
▁Home	-13134
▁Pass	-13135
▁Swan	-13136
▁chem	-13137
▁tags	-13138
▁House	-13139
▁bales	-13140
▁Brandy	-13141
▁boldly	-13142
▁clocks	-13143
▁typing	-13144
ireworks	-13145
▁Anthony	-13146
▁Natalie	-13147
▁casting	-13148
▁features	-13149
▁glorious	-13150
▁raindrop	-13151
▁unharmed	-13152
▁professor	-13153
▁underwear	-13154
gum	-13155
Baby	-13156
love	-13157
used	-13158
▁Law	-13159
▁Flip	-13160
▁dise	-13161
Enough	-13162
otions	-13163
▁Bossy	-13164
▁Guess	-13165
▁Rhino	-13166
▁etern	-13167
▁total	-13168
▁tulip	-13169
▁Sharks	-13170
▁neater	-13171
▁rinses	-13172
▁Trouble	-13173
▁illness	-13174
▁handyman	-13175
▁leftover	-13176
▁squashed	-13177
▁medicines	-13178
▁billboards	-13179
▁smoothness	-13180
▁paintbrushes	-13181
Su	-13182
Cle	-13183
Find	-13184
ancy	-13185
hold	-13186
rows	-13187
▁Gas	-13188
▁tit	-13189
▁Jada	-13190
▁Move	-13191
orance	-13192
▁Donny	-13193
▁elves	-13194
▁giddy	-13195
entions	-13196
▁Connor	-13197
▁jigsaw	-13198
▁emotions	-13199
▁hideaway	-13200
▁showered	-13201
▁reception	-13202
azzy	-13203
test	-13204
▁Cal	-13205
▁zap	-13206
Bobby	-13207
▁Slim	-13208
▁dumps	-13209
▁Franny	-13210
▁badges	-13211
▁scenes	-13212
▁steamy	-13213
together	-13214
▁Children	-13215
▁provides	-13216
Big	-13217
rol	-13218
alue	-13219
anya	-13220
stem	-13221
▁Bal	-13222
▁ome	-13223
▁rum	-13224
Polly	-13225
▁Beet	-13226
▁July	-13227
▁brim	-13228
ercise	-13229
▁Naomi	-13230
▁plums	-13231
▁Tommyâ	-13232
▁Peeking	-13233
▁heartbeat	-13234
Cra	-13235
▁Ac	-13236
mary	-13237
▁Pal	-13238
▁Tink	-13239
worthy	-13240
▁Blood	-13241
▁Cluck	-13242
▁Night	-13243
▁curry	-13244
▁waggy	-13245
▁Amelie	-13246
▁braids	-13247
▁youths	-13248
▁betrayed	-13249
▁bristles	-13250
▁crumbled	-13251
▁describe	-13252
▁pleading	-13253
▁policemen	-13254
▁transport	-13255
▁Especially	-13256
▁afternoons	-13257
œH	-13258
meow	-13259
Poppy	-13260
tails	-13261
▁Band	-13262
▁Comp	-13263
▁cack	-13264
rolled	-13265
▁Della	-13266
▁leaks	-13267
▁plugs	-13268
▁cheeky	-13269
▁porcup	-13270
▁ravens	-13271
▁funnier	-13272
▁Scissors	-13273
▁bedrooms	-13274
▁grumpier	-13275
▁hummingbird	-13276
œJ	-13277
ela	-13278
▁Ah	-13279
gedy	-13280
help	-13281
œNot	-13282
▁Les	-13283
▁Pep	-13284
▁Dean	-13285
▁Within	-13286
▁fished	-13287
▁weaved	-13288
treating	-13289
▁smudged	-13290
▁Clarissa	-13291
▁hesitate	-13292
▁smoothed	-13293
▁dreamland	-13294
▁twitching	-13295
▁Foreshadowing	-13296
down	-13297
urray	-13298
▁Clay	-13299
▁cork	-13300
▁Horse	-13301
▁bared	-13302
▁cases	-13303
osaurus	-13304
▁Celery	-13305
▁begins	-13306
▁eldest	-13307
▁passer	-13308
iversary	-13309
▁benefit	-13310
▁blender	-13311
▁flipper	-13312
▁heavens	-13313
▁Swimming	-13314
▁blossoms	-13315
▁flooding	-13316
▁stumbles	-13317
▁Different	-13318
▁harvested	-13319
▁mightiest	-13320
▁reflected	-13321
▁professional	-13322
ANG	-13323
Fun	-13324
mit	-13325
umbo	-13326
Momma	-13327
maybe	-13328
▁Hard	-13329
▁numb	-13330
▁Paddy	-13331
▁Pixie	-13332
▁sixty	-13333
goodbye	-13334
▁pickle	-13335
▁woolly	-13336
▁doghouse	-13337
▁flagpole	-13338
▁Listening	-13339
▁tournament	-13340
▁Fur	-13341
▁Evie	-13342
▁Said	-13343
▁cabb	-13344
verest	-13345
▁CRASH	-13346
▁Dolls	-13347
▁chore	-13348
Warning	-13349
▁soothe	-13350
▁tagged	-13351
▁toasty	-13352
▁Jenkins	-13353
▁massive	-13354
▁recently	-13355
Mix	-13356
Lion	-13357
Pick	-13358
▁Tur	-13359
Mandy	-13360
ships	-13361
▁crop	-13362
Dinner	-13363
▁Throw	-13364
▁ident	-13365
▁occur	-13366
▁Stacey	-13367
▁hunted	-13368
▁dribble	-13369
▁earring	-13370
▁grasses	-13371
▁lightbulb	-13372
▁mechanics	-13373
▁washcloth	-13374
▁landscapes	-13375
▁Caterpillar	-13376
▁perspective	-13377
'!	-13378
Mil	-13379
fty	-13380
Ring	-13381
▁Evan	-13382
▁olds	-13383
▁rese	-13384
Splash	-13385
bulous	-13386
▁eerie	-13387
▁bossed	-13388
▁fabrics	-13389
▁overall	-13390
▁peddled	-13391
▁shivers	-13392
Chocolate	-13393
▁produced	-13394
▁treetops	-13395
▁Happiness	-13396
▁helplessly	-13397
▁trustworthy	-13398
▁pew	-13399
▁lays	-13400
Yippee	-13401
jected	-13402
▁Marla	-13403
Promise	-13404
▁canary	-13405
▁upcoming	-13406
▁conflicts	-13407
▁observant	-13408
▁chessboard	-13409
▁splattered	-13410
Pat	-13411
cha	-13412
for	-13413
uns	-13414
cred	-13415
oray	-13416
▁mam	-13417
▁Nala	-13418
▁saws	-13419
▁Pasta	-13420
▁stash	-13421
▁advert	-13422
▁croiss	-13423
Tomorrow	-13424
▁freeing	-13425
▁shoebox	-13426
▁fabulous	-13427
▁porcupine	-13428
▁meaningful	-13429
urly	-13430
▁Sit	-13431
▁bob	-13432
Bravo	-13433
▁Mind	-13434
▁Story	-13435
▁Tanya	-13436
œFollow	-13437
▁France	-13438
▁armour	-13439
▁public	-13440
▁skated	-13441
▁Scratch	-13442
▁blouses	-13443
▁prouder	-13444
▁pigtails	-13445
▁shoelace	-13446
▁collector	-13447
▁seatbelts	-13448
▁sid	-13449
paper	-13450
▁BEEP	-13451
▁Caut	-13452
▁cran	-13453
inated	-13454
▁Crazy	-13455
▁Shawn	-13456
▁Trying	-13457
▁slings	-13458
▁blasted	-13459
▁seaside	-13460
▁cleverest	-13461
▁apologizing	-13462
▁demonstrated	-13463
?''	-13464
cum	-13465
dad	-13466
▁Oil	-13467
▁unp	-13468
ensed	-13469
feree	-13470
▁joys	-13471
Wisdom	-13472
▁Berry	-13473
▁disre	-13474
▁hired	-13475
Reverse	-13476
▁client	-13477
▁planks	-13478
▁spiral	-13479
▁referee	-13480
▁believes	-13481
▁clucking	-13482
▁bubblegum	-13483
▁cooperative	-13484
iya	-13485
Show	-13486
lete	-13487
▁abs	-13488
▁East	-13489
▁Five	-13490
▁Sing	-13491
▁Wind	-13492
œSorry	-13493
▁Rocks	-13494
▁Fright	-13495
▁Snowfl	-13496
▁enters	-13497
▁omelet	-13498
▁imagines	-13499
▁rummaged	-13500
▁Frightened	-13501
▁boundaries	-13502
▁chalkboard	-13503
▁mattresses	-13504
Sun	-13505
Park	-13506
tale	-13507
œDad	-13508
Water	-13509
▁Amyâ	-13510
▁Glow	-13511
▁Rest	-13512
▁Titi	-13513
▁burp	-13514
▁bulls	-13515
▁frost	-13516
▁Flower	-13517
ilarious	-13518
▁butcher	-13519
▁grilled	-13520
▁merrily	-13521
▁quarrels	-13522
▁Crocodile	-13523
▁clubhouse	-13524
▁volunteer	-13525
œF	-13526
see	-13527
crack	-13528
ierre	-13529
▁mult	-13530
▁punch	-13531
▁Pierre	-13532
▁sensed	-13533
▁sparked	-13534
▁Whatever	-13535
▁evenings	-13536
▁sentences	-13537
▁anniversary	-13538
ba	-13539
gh	-13540
boom	-13541
sized	-13542
▁Lazy	-13543
▁Leon	-13544
▁Pige	-13545
▁Rina	-13546
▁cure	-13547
▁gods	-13548
▁Marvin	-13549
▁Repeat	-13550
▁Besides	-13551
▁cabbage	-13552
▁fancier	-13553
▁rancher	-13554
▁wizards	-13555
▁Grandmaâ	-13556
▁cleverly	-13557
▁speakers	-13558
▁speckled	-13559
▁swooping	-13560
▁hilarious	-13561
▁convincing	-13562
▁politeness	-13563
Sc	-13564
bun	-13565
urf	-13566
▁Bon	-13567
Share	-13568
acked	-13569
▁Race	-13570
▁beady	-13571
▁clang	-13572
ushroom	-13573
▁Stripe	-13574
▁glossy	-13575
▁igloos	-13576
▁manner	-13577
▁Feather	-13578
▁grilling	-13579
▁particip	-13580
▁smashing	-13581
▁eachother	-13582
▁slingshot	-13583
▁Cautiously	-13584
▁cartwheels	-13585
▁transformation	-13586
rid	-13587
eith	-13588
▁Seal	-13589
▁Soap	-13590
▁Wine	-13591
Pretty	-13592
▁Annaâ	-13593
▁Laser	-13594
▁Whale	-13595
▁slope	-13596
▁yards	-13597
▁Hunter	-13598
▁cooing	-13599
▁creaky	-13600
▁heeded	-13601
▁phrase	-13602
▁weakly	-13603
▁grizzly	-13604
▁soothed	-13605
▁responsibly	-13606
▁extinguisher	-13607
sk	-13608
Doll	-13609
Life	-13610
Woah	-13611
ylie	-13612
Yield	-13613
▁Lula	-13614
▁educ	-13615
▁furt	-13616
▁tilt	-13617
▁docum	-13618
▁ripest	-13619
▁squirm	-13620
▁Cooking	-13621
▁farmerâ	-13622
▁rabbitâ	-13623
▁practise	-13624
▁delicately	-13625
▁sharpening	-13626
Sal	-13627
Hmmm	-13628
▁Pri	-13629
▁Rub	-13630
▁mow	-13631
▁Hors	-13632
▁Ring	-13633
▁brow	-13634
George	-13635
sticks	-13636
œthank	-13637
▁Beaky	-13638
▁Porky	-13639
▁fiery	-13640
▁ramps	-13641
▁plunge	-13642
▁revved	-13643
▁rushes	-13644
▁snored	-13645
▁splits	-13646
▁untidy	-13647
▁skilled	-13648
▁Counting	-13649
▁avoiding	-13650
▁furthest	-13651
▁judgement	-13652
▁numbering	-13653
▁generations	-13654
▁bi	-13655
ilia	-13656
seat	-13657
▁Suc	-13658
tyard	-13659
▁Chad	-13660
▁Skye	-13661
raying	-13662
▁Dinah	-13663
▁ducky	-13664
healthy	-13665
▁Rollie	-13666
▁lowest	-13667
▁console	-13668
▁toppled	-13669
▁briefcase	-13670
▁complaints	-13671
▁cauliflowers	-13672
ubs	-13673
▁Ear	-13674
Throw	-13675
ucted	-13676
▁eyeb	-13677
vation	-13678
▁Dotty	-13679
▁Lunch	-13680
▁Pengu	-13681
▁repres	-13682
▁Barkley	-13683
▁perhaps	-13684
▁spooned	-13685
▁stamping	-13686
▁Mu	-13687
Lost	-13688
baby	-13689
rett	-13690
▁nav	-13691
ented	-13692
▁Elen	-13693
▁tart	-13694
orting	-13695
ricket	-13696
▁Relax	-13697
▁French	-13698
▁Miller	-13699
▁Pirate	-13700
▁ripple	-13701
▁prisoner	-13702
▁scowling	-13703
▁encourages	-13704
La	-13705
Ta	-13706
yay	-13707
Buzz	-13708
four	-13709
œLucy	-13710
▁Boat	-13711
▁symp	-13712
▁Andre	-13713
▁Bring	-13714
▁Hilda	-13715
▁Print	-13716
▁Taffy	-13717
▁ached	-13718
▁grind	-13719
▁trink	-13720
Teacher	-13721
▁Julian	-13722
▁Nicole	-13723
▁Frances	-13724
▁boredom	-13725
▁mumbled	-13726
▁whistler	-13727
▁threatening	-13728
▁deliciousness	-13729
Fin	-13730
OOM	-13731
▁Oy	-13732
Ahhh	-13733
▁Mya	-13734
▁huh	-13735
▁spa	-13736
rated	-13737
▁Maggy	-13738
▁Turns	-13739
▁pinks	-13740
ophones	-13741
▁Easter	-13742
▁Skelet	-13743
▁grades	-13744
▁hiking	-13745
▁system	-13746
▁Popcorn	-13747
▁concern	-13748
▁fluffed	-13749
▁counters	-13750
▁handling	-13751
▁hungrily	-13752
▁pathways	-13753
▁courtyard	-13754
▁everyoneâ	-13755
▁exception	-13756
▁memorable	-13757
▁motorbike	-13758
▁neighborâ	-13759
▁cooperation	-13760
▁storyteller	-13761
vie	-13762
œit	-13763
▁"'	-13764
hill	-13765
ific	-13766
▁Ink	-13767
▁pom	-13768
Spicy	-13769
▁Mixy	-13770
▁doze	-13771
▁oval	-13772
▁bolts	-13773
▁flesh	-13774
▁pools	-13775
▁slows	-13776
▁clicks	-13777
▁madder	-13778
▁shoved	-13779
▁flowery	-13780
▁racecar	-13781
▁schools	-13782
▁Daughter	-13783
▁devoured	-13784
▁searches	-13785
▁souvenirs	-13786
▁overcoming	-13787
pot	-13788
back	-13789
uffs	-13790
idden	-13791
nique	-13792
▁Cory	-13793
▁handc	-13794
▁Fierce	-13795
▁frilly	-13796
▁uneven	-13797
▁fighter	-13798
▁safaris	-13799
▁snacking	-13800
▁Buttercup	-13801
▁fairytale	-13802
▁downstream	-13803
▁straightened	-13804
irus	-13805
▁Bry	-13806
▁rap	-13807
asons	-13808
emons	-13809
▁Dark	-13810
▁Puzz	-13811
▁jugs	-13812
▁mops	-13813
▁Allig	-13814
▁navig	-13815
▁snows	-13816
isitive	-13817
▁Margie	-13818
▁Mattie	-13819
▁Mousey	-13820
▁pauses	-13821
▁sulked	-13822
atherine	-13823
▁Georgia	-13824
▁Pumpkin	-13825
▁anchors	-13826
▁choking	-13827
▁fishies	-13828
▁quarter	-13829
▁slowing	-13830
▁Watching	-13831
▁eternity	-13832
▁friendsâ	-13833
▁pondered	-13834
▁strongly	-13835
▁stubbornly	-13836
ini	-13837
eteria	-13838
▁Boots	-13839
▁Lewis	-13840
▁dents	-13841
▁mazes	-13842
▁mules	-13843
▁ginger	-13844
▁poorly	-13845
▁besides	-13846
▁leashes	-13847
▁backseat	-13848
▁products	-13849
▁cafeteria	-13850
▁strangely	-13851
▁flickering	-13852
▁persevered	-13853
▁inquisitive	-13854
▁celebrations	-13855
li	-13856
Frog	-13857
▁Fix	-13858
▁Ten	-13859
▁mmm	-13860
stage	-13861
▁fain	-13862
elines	-13863
iggles	-13864
making	-13865
œThose	-13866
▁Learn	-13867
▁Minty	-13868
▁broad	-13869
▁parach	-13870
▁sunbat	-13871
▁tender	-13872
▁Blackie	-13873
▁darkest	-13874
▁chimneys	-13875
▁passerby	-13876
▁raspberry	-13877
▁sidelines	-13878
Gas	-13879
hoo	-13880
▁hy	-13881
aaah	-13882
œlet	-13883
Clean	-13884
poles	-13885
œTime	-13886
▁Lala	-13887
▁role	-13888
Cheers	-13889
grandma	-13890
theless	-13891
▁fitted	-13892
▁Holding	-13893
▁boatman	-13894
▁carving	-13895
▁daycare	-13896
▁tragedy	-13897
▁tattered	-13898
▁galloping	-13899
▁appreciating	-13900
pop	-13901
oooo	-13902
▁gut	-13903
ieces	-13904
▁Cont	-13905
▁Fast	-13906
▁Sack	-13907
▁nook	-13908
Almost	-13909
▁await	-13910
▁Harvey	-13911
▁ferris	-13912
▁miners	-13913
▁ticked	-13914
▁Chicken	-13915
▁longing	-13916
▁scatters	-13917
▁trotting	-13918
▁recycling	-13919
▁outsmarted	-13920
▁relaxation	-13921
▁recommendations	-13922
cco	-13923
Andy	-13924
Mail	-13925
dely	-13926
Lemon	-13927
omped	-13928
œwhat	-13929
▁Lili	-13930
▁duty	-13931
▁sooo	-13932
▁Bingo	-13933
▁Dilly	-13934
▁Pippy	-13935
▁Sonia	-13936
▁fives	-13937
▁Duckie	-13938
▁Majest	-13939
▁rudely	-13940
▁snooze	-13941
▁Jumping	-13942
▁Somehow	-13943
▁replying	-13944
▁priceless	-13945
▁adventuring	-13946
Rest	-13947
arten	-13948
umped	-13949
▁Deep	-13950
▁Purr	-13951
▁Sher	-13952
▁Tomi	-13953
▁Flick	-13954
▁Franc	-13955
▁virus	-13956
▁Blocks	-13957
▁Teacher	-13958
▁onboard	-13959
▁payment	-13960
▁tucking	-13961
▁meantime	-13962
▁tadpoles	-13963
▁underestimate	-13964
ton	-13965
bear	-13966
star	-13967
▁ooh	-13968
ordan	-13969
œYeah	-13970
Rabbit	-13971
▁drunk	-13972
▁jeeps	-13973
▁raged	-13974
▁tiptoe	-13975
▁Success	-13976
▁failure	-13977
▁shaping	-13978
▁dashboard	-13979
▁ringmaster	-13980
di	-13981
Son	-13982
▁tv	-13983
teen	-13984
▁Sec	-13985
▁ske	-13986
erald	-13987
œTake	-13988
▁Lori	-13989
▁mant	-13990
▁cools	-13991
œThereâ	-13992
▁Stuart	-13993
▁cannon	-13994
▁Majesty	-13995
▁bandana	-13996
▁itching	-13997
▁justice	-13998
▁looping	-13999
▁parentsâ	-14000
▁scariest	-14001
▁baseballs	-14002
▁altogether	-14003
Arr	-14004
Pay	-14005
ata	-14006
lot	-14007
Math	-14008
ller	-14009
nold	-14010
pler	-14011
unky	-14012
▁Cop	-14013
Brown	-14014
▁axes	-14015
▁virt	-14016
liness	-14017
▁Lolly	-14018
▁rescu	-14019
▁Thereâ	-14020
▁aiming	-14021
▁garlic	-14022
▁jewell	-14023
▁juices	-14024
▁Mallory	-14025
▁bossing	-14026
▁wildest	-14027
Excellent	-14028
sometimes	-14029
▁brownies	-14030
▁fashions	-14031
▁thundering	-14032
▁dragonflies	-14033
wee	-14034
▁aa	-14035
▁Bla	-14036
▁wed	-14037
▁Lord	-14038
▁Rico	-14039
▁pity	-14040
▁yeah	-14041
Repeat	-14042
Sounds	-14043
▁grime	-14044
▁shrie	-14045
Rainbow	-14046
ibility	-14047
▁Bunbun	-14048
▁posted	-14049
▁program	-14050
▁shepher	-14051
▁Snowflake	-14052
Car	-14053
oyd	-14054
Ding	-14055
woof	-14056
▁Coo	-14057
▁Ian	-14058
affod	-14059
▁Bart	-14060
▁Bozo	-14061
▁Tick	-14062
▁thor	-14063
▁Fruit	-14064
▁Theyâ	-14065
▁motiv	-14066
▁Apples	-14067
▁bakers	-14068
▁imitate	-14069
▁orderly	-14070
▁Lancelot	-14071
▁Skeleton	-14072
▁headband	-14073
▁roasting	-14074
▁weekends	-14075
▁blossomed	-14076
▁disrespect	-14077
▁satisfying	-14078
▁hospitality	-14079
Ar	-14080
zzz	-14081
Mind	-14082
yield	-14083
▁swarm	-14084
▁Barber	-14085
▁Cotton	-14086
▁parcel	-14087
ergarten	-14088
▁amounts	-14089
▁jingled	-14090
▁Painting	-14091
▁belonging	-14092
▁misbehave	-14093
▁microphones	-14094
lle	-14095
moo	-14096
six	-14097
enry	-14098
▁Reg	-14099
Could	-14100
▁Deaf	-14101
angles	-14102
celled	-14103
▁Worms	-14104
▁snout	-14105
Believe	-14106
▁Parrot	-14107
▁Scared	-14108
▁glance	-14109
▁jersey	-14110
▁keepers	-14111
▁stormed	-14112
▁cleanest	-14113
▁classmate	-14114
▁Throughout	-14115
▁intentions	-14116
▁improvement	-14117
ING	-14118
Spid	-14119
rove	-14120
rude	-14121
▁Lin	-14122
vable	-14123
▁Timâ	-14124
▁nois	-14125
▁sixt	-14126
▁Bumpy	-14127
▁Emmaâ	-14128
▁Paint	-14129
▁Paper	-14130
▁vivid	-14131
▁Gerald	-14132
▁Waffle	-14133
▁floods	-14134
▁tosses	-14135
▁Chester	-14136
▁sucking	-14137
organized	-14138
▁hallways	-14139
▁infected	-14140
▁overalls	-14141
▁shutting	-14142
▁treating	-14143
▁squishing	-14144
Ros	-14145
▁Maia	-14146
▁lure	-14147
▁vain	-14148
▁whee	-14149
▁Ringo	-14150
▁baaed	-14151
▁choked	-14152
▁choppy	-14153
▁oblige	-14154
▁radios	-14155
▁Tonight	-14156
▁buttery	-14157
▁drained	-14158
▁reasons	-14159
▁sharper	-14160
▁tipping	-14161
▁fragrant	-14162
▁gestured	-14163
▁swimmers	-14164
▁affection	-14165
!!	-14166
Ad	-14167
Gr	-14168
wi	-14169
eight	-14170
▁Food	-14171
▁Hide	-14172
▁eyel	-14173
▁Curly	-14174
▁Margo	-14175
▁Morty	-14176
▁angle	-14177
▁glint	-14178
▁rooft	-14179
▁hating	-14180
▁quench	-14181
▁cradled	-14182
▁involve	-14183
▁competed	-14184
▁decrease	-14185
▁truthful	-14186
▁education	-14187
▁qualities	-14188
▁wealthier	-14189
Cir	-14190
Six	-14191
bove	-14192
ista	-14193
▁Opal	-14194
▁pats	-14195
▁span	-14196
irteen	-14197
▁Acorn	-14198
▁Steam	-14199
▁title	-14200
▁Arnold	-14201
▁dusting	-14202
▁shepherd	-14203
▁vacuumed	-14204
▁rainstorm	-14205
▁barbershop	-14206
▁triumphant	-14207
Aha	-14208
suit	-14209
eresa	-14210
ossom	-14211
▁Shel	-14212
▁litt	-14213
▁fifth	-14214
keeping	-14215
œExcuse	-14216
▁Blossom	-14217
▁Napping	-14218
▁strapped	-14219
▁wonderfully	-14220
enn	-14221
imid	-14222
ires	-14223
otic	-14224
▁Cand	-14225
▁Tiff	-14226
▁vers	-14227
▁Angus	-14228
▁Elise	-14229
▁Fritz	-14230
▁Terri	-14231
▁forms	-14232
▁kilos	-14233
▁mould	-14234
behaved	-14235
▁Jordan	-14236
▁Teresa	-14237
▁neighs	-14238
▁raging	-14239
▁spends	-14240
▁carrier	-14241
▁cooling	-14242
▁escapes	-14243
▁swatted	-14244
▁jingling	-14245
▁unfreeze	-14246
▁housework	-14247
OW	-14248
voc	-14249
Exit	-14250
Marry	-14251
avers	-14252
green	-14253
icals	-14254
▁dawn	-14255
▁heap	-14256
▁tock	-14257
▁Above	-14258
▁Lilli	-14259
▁Perry	-14260
▁Stars	-14261
▁advis	-14262
▁ahhed	-14263
▁cargo	-14264
▁filth	-14265
▁Blinky	-14266
▁Lottie	-14267
▁compart	-14268
▁intimid	-14269
▁origami	-14270
▁crunched	-14271
▁entirely	-14272
▁cancelled	-14273
▁milkshake	-14274
▁flexibility	-14275
Ru	-14276
œW	-14277
Ban	-14278
Sit	-14279
ille	-14280
nine	-14281
unts	-14282
▁Rod	-14283
▁Row	-14284
Annie	-14285
Doggy	-14286
▁Cats	-14287
▁cert	-14288
▁hamm	-14289
assion	-14290
▁Lucia	-14291
▁Rocco	-14292
▁treeâ	-14293
▁Beetle	-14294
▁antics	-14295
▁leaked	-14296
▁tennis	-14297
▁disease	-14298
▁recital	-14299
▁seeming	-14300
▁shortly	-14301
▁snoozing	-14302
▁unhealthy	-14303
▁questioning	-14304
zel	-14305
Fred	-14306
pera	-14307
pply	-14308
opard	-14309
seven	-14310
▁Cate	-14311
▁Dash	-14312
▁Mari	-14313
▁Need	-14314
▁Soft	-14315
▁bale	-14316
▁Ahead	-14317
▁Going	-14318
▁concl	-14319
▁graze	-14320
elderly	-14321
▁Andrea	-14322
▁colony	-14323
▁pranks	-14324
▁walker	-14325
rawberry	-14326
▁Peaches	-14327
▁doggies	-14328
▁glinted	-14329
▁honestly	-14330
▁hydrated	-14331
▁stranded	-14332
▁swallows	-14333
▁amazingly	-14334
Hoo	-14335
obi	-14336
Soph	-14337
nock	-14338
▁Dar	-14339
▁Han	-14340
bling	-14341
▁Shop	-14342
▁dren	-14343
▁eyed	-14344
▁jogg	-14345
Wheeee	-14346
▁Catch	-14347
▁Clouds	-14348
▁Marian	-14349
▁angles	-14350
▁nuzzle	-14351
▁piling	-14352
▁virtue	-14353
Anything	-14354
▁Honesty	-14355
▁beavers	-14356
▁speeded	-14357
▁bursting	-14358
▁stinging	-14359
▁chemicals	-14360
▁shrugging	-14361
▁thundercl	-14362
▁disobeying	-14363
Yep	-14364
ali	-14365
blue	-14366
nuts	-14367
▁Had	-14368
▁Nap	-14369
▁cru	-14370
James	-14371
ifact	-14372
▁Guns	-14373
▁beck	-14374
ilizer	-14375
▁accur	-14376
▁stock	-14377
▁token	-14378
▁vigor	-14379
▁Tucker	-14380
▁rhymes	-14381
▁Madison	-14382
▁eyebrows	-14383
▁reporter	-14384
▁Spaghetti	-14385
▁apologise	-14386
▁gracefulness	-14387
.".	-14388
mmm	-14389
zer	-14390
Luna	-14391
gant	-14392
▁Gri	-14393
▁Ham	-14394
▁Sis	-14395
▁fal	-14396
istic	-14397
Mister	-14398
▁Alina	-14399
▁Bucky	-14400
▁Elena	-14401
▁Elmer	-14402
▁Novel	-14403
▁Ronny	-14404
▁apply	-14405
▁oppon	-14406
atively	-14407
▁Square	-14408
▁ninety	-14409
▁campers	-14410
▁seventy	-14411
▁Mushroom	-14412
▁coldness	-14413
▁cowgirls	-14414
▁shrieked	-14415
sal	-14416
▁Ja	-14417
Joey	-14418
folk	-14419
oise	-14420
chers	-14421
pling	-14422
▁Dana	-14423
shrink	-14424
▁swish	-14425
œLittle	-14426
▁Elliot	-14427
▁splashy	-14428
▁tissues	-14429
▁artifact	-14430
▁extended	-14431
▁research	-14432
App	-14433
axi	-14434
▁ug	-14435
ayed	-14436
iders	-14437
▁Corn	-14438
▁Fern	-14439
▁snor	-14440
▁stam	-14441
riving	-14442
▁Brett	-14443
▁Cally	-14444
▁girly	-14445
▁nudge	-14446
▁rakes	-14447
coaster	-14448
▁flyers	-14449
▁confron	-14450
▁dinners	-14451
▁flushed	-14452
▁stooped	-14453
▁connects	-14454
▁depending	-14455
▁gentlemen	-14456
▁marvelous	-14457
▁Nevertheless	-14458
RR	-14459
Wee	-14460
ipt	-14461
nas	-14462
▁Sy	-14463
Mike	-14464
cest	-14465
ddle	-14466
ican	-14467
list	-14468
enzie	-14469
overs	-14470
▁Golf	-14471
▁Mist	-14472
▁Swans	-14473
▁Prunes	-14474
▁Turkey	-14475
▁basics	-14476
▁crowds	-14477
▁eighty	-14478
▁hopper	-14479
▁portal	-14480
▁Cricket	-14481
▁chomped	-14482
▁dipping	-14483
▁judging	-14484
▁freshest	-14485
▁wheelchair	-14486
▁receptionist	-14487
cra	-14488
Rose	-14489
peat	-14490
ques	-14491
▁tus	-14492
asped	-14493
iwork	-14494
onica	-14495
taker	-14496
▁Long	-14497
▁Sour	-14498
▁Troy	-14499
▁chor	-14500
▁waft	-14501
Spring	-14502
bridge	-14503
ooping	-14504
œYummy	-14505
▁stink	-14506
▁Snakes	-14507
▁daffod	-14508
▁divide	-14509
▁engulf	-14510
▁noodle	-14511
Butterfly	-14512
▁Flexible	-14513
▁Skipping	-14514
▁controls	-14515
▁invented	-14516
▁sizzling	-14517
▁Delicious	-14518
▁handiwork	-14519
▁realising	-14520
▁scuttling	-14521
▁townsfolk	-14522
▁marketplace	-14523
▁nervousness	-14524
▁preparation	-14525
Am	-14526
ER	-14527
ES	-14528
Yup	-14529
igo	-14530
tha	-14531
▁Cy	-14532
Paul	-14533
eezy	-14534
▁Rep	-14535
Ollie	-14536
asant	-14537
▁Iris	-14538
▁wars	-14539
itties	-14540
person	-14541
repeat	-14542
▁Teach	-14543
▁skept	-14544
▁backup	-14545
▁reluct	-14546
▁banners	-14547
▁violins	-14548
▁Dinosaur	-14549
▁raccoons	-14550
▁thumping	-14551
▁dribbling	-14552
▁jewellery	-14553
▁classrooms	-14554
▁photograph	-14555
Pu	-14556
Hot	-14557
oped	-14558
▁Fuel	-14559
▁Jana	-14560
▁cham	-14561
▁Ariel	-14562
▁Debby	-14563
▁Ghost	-14564
▁Steak	-14565
▁booms	-14566
▁dread	-14567
▁unity	-14568
▁Strong	-14569
▁accord	-14570
▁growth	-14571
▁snorke	-14572
▁yachts	-14573
▁Bananas	-14574
▁pausing	-14575
▁antennas	-14576
▁drenched	-14577
▁lightest	-14578
▁elsewhere	-14579
▁reminders	-14580
▁pleasantly	-14581
!?"	-14582
even	-14583
ilah	-14584
road	-14585
▁Jew	-14586
▁Nor	-14587
Spray	-14588
obble	-14589
œletâ	-14590
▁Reach	-14591
▁lasts	-14592
▁north	-14593
▁unple	-14594
Whoever	-14595
knowing	-14596
▁fasten	-14597
▁honour	-14598
▁Washing	-14599
▁Whether	-14600
▁adopted	-14601
▁advised	-14602
▁hammock	-14603
▁intense	-14604
▁puffing	-14605
▁rafting	-14606
▁previous	-14607
▁selected	-14608
▁ignorance	-14609
▁regretting	-14610
Jam	-14611
Tre	-14612
Cook	-14613
Glad	-14614
iful	-14615
oken	-14616
oofy	-14617
ugga	-14618
œbut	-14619
Books	-14620
ricia	-14621
▁Tobi	-14622
▁fero	-14623
▁tugs	-14624
▁trays	-14625
▁unatt	-14626
tasting	-14627
▁Fisher	-14628
▁Wilson	-14629
▁opener	-14630
▁pinned	-14631
▁rubble	-14632
▁sacked	-14633
▁snugly	-14634
▁strive	-14635
▁exhaust	-14636
▁fainted	-14637
▁prefere	-14638
▁recycle	-14639
▁cheapest	-14640
▁shimmery	-14641
▁snowstorm	-14642
▁strumming	-14643
▁expressing	-14644
▁superpowers	-14645
▁supervision	-14646
aph	-14647
ida	-14648
▁nor	-14649
atops	-14650
icier	-14651
▁Amer	-14652
▁feat	-14653
▁skid	-14654
Monkey	-14655
atrina	-14656
ourage	-14657
▁Amaya	-14658
▁Words	-14659
▁claim	-14660
▁illum	-14661
▁jumpy	-14662
▁moldy	-14663
▁swore	-14664
▁Bertha	-14665
▁Jayden	-14666
▁Pigeon	-14667
▁Saturn	-14668
▁french	-14669
▁waists	-14670
ceratops	-14671
▁Running	-14672
▁kitties	-14673
▁limeade	-14674
▁obeying	-14675
▁modestly	-14676
▁puckered	-14677
[...]
